/* Copyright 2023 The TensorFlow Authors. All Rights Reserved.

// This is a standard TensorFlow Lite FlatBuffer model file that has been
// converted into a C data array, so it can be easily compiled into a binary
// for devices that don't have a file system. It was created using the command:
// xxd -i model.tflite > model.cc
*/

#include "micro_features_model.h"

// Keep aligned to 16 bytes for CMSIS
alignas(16) const unsigned char g_model[] = {
  0x20, 0x00, 0x00, 0x00, 0x54, 0x46, 0x4c, 0x33, 0x00, 0x00, 0x00, 0x00,
  0x14, 0x00, 0x20, 0x00, 0x1c, 0x00, 0x18, 0x00, 0x14, 0x00, 0x10, 0x00,
  0x0c, 0x00, 0x00, 0x00, 0x08, 0x00, 0x04, 0x00, 0x14, 0x00, 0x00, 0x00,
  0x1c, 0x00, 0x00, 0x00, 0x94, 0x00, 0x00, 0x00, 0x14, 0x01, 0x00, 0x00,
  0x68, 0x13, 0x00, 0x00, 0x78, 0x13, 0x00, 0x00, 0x60, 0x39, 0x00, 0x00,
  0x03, 0x00, 0x00, 0x00, 0x01, 0x00, 0x00, 0x00, 0x10, 0x00, 0x00, 0x00,
  0x00, 0x00, 0x0a, 0x00, 0x10, 0x00, 0x0c, 0x00, 0x08, 0x00, 0x04, 0x00,
  0x0a, 0x00, 0x00, 0x00, 0x0c, 0x00, 0x00, 0x00, 0x1c, 0x00, 0x00, 0x00,
  0x3c, 0x00, 0x00, 0x00, 0x0f, 0x00, 0x00, 0x00, 0x73, 0x65, 0x72, 0x76,
  0x69, 0x6e, 0x67, 0x5f, 0x64, 0x65, 0x66, 0x61, 0x75, 0x6c, 0x74, 0x00,
  0x01, 0x00, 0x00, 0x00, 0x04, 0x00, 0x00, 0x00, 0x6c, 0xff, 0xff, 0xff,
  0x1e, 0x00, 0x00, 0x00, 0x04, 0x00, 0x00, 0x00, 0x08, 0x00, 0x00, 0x00,
  0x6f, 0x75, 0x74, 0x70, 0x75, 0x74, 0x5f, 0x30, 0x00, 0x00, 0x00, 0x00,
  0x01, 0x00, 0x00, 0x00, 0x04, 0x00, 0x00, 0x00, 0x6a, 0xec, 0xff, 0xff,
  0x04, 0x00, 0x00, 0x00, 0x09, 0x00, 0x00, 0x00, 0x6d, 0x65, 0x6c, 0x5f,
  0x69, 0x6e, 0x70, 0x75, 0x74, 0x00, 0x00, 0x00, 0x03, 0x00, 0x00, 0x00,
  0x5c, 0x00, 0x00, 0x00, 0x2c, 0x00, 0x00, 0x00, 0x04, 0x00, 0x00, 0x00,
  0xb8, 0xff, 0xff, 0xff, 0x22, 0x00, 0x00, 0x00, 0x04, 0x00, 0x00, 0x00,
  0x13, 0x00, 0x00, 0x00, 0x43, 0x4f, 0x4e, 0x56, 0x45, 0x52, 0x53, 0x49,
  0x4f, 0x4e, 0x5f, 0x4d, 0x45, 0x54, 0x41, 0x44, 0x41, 0x54, 0x41, 0x00,
  0xdc, 0xff, 0xff, 0xff, 0x21, 0x00, 0x00, 0x00, 0x04, 0x00, 0x00, 0x00,
  0x13, 0x00, 0x00, 0x00, 0x6d, 0x69, 0x6e, 0x5f, 0x72, 0x75, 0x6e, 0x74,
  0x69, 0x6d, 0x65, 0x5f, 0x76, 0x65, 0x72, 0x73, 0x69, 0x6f, 0x6e, 0x00,
  0x08, 0x00, 0x0c, 0x00, 0x08, 0x00, 0x04, 0x00, 0x08, 0x00, 0x00, 0x00,
  0x20, 0x00, 0x00, 0x00, 0x04, 0x00, 0x00, 0x00, 0x13, 0x00, 0x00, 0x00,
  0x6d, 0x69, 0x6e, 0x5f, 0x72, 0x75, 0x6e, 0x74, 0x69, 0x6d, 0x65, 0x5f,
  0x76, 0x65, 0x72, 0x73, 0x69, 0x6f, 0x6e, 0x00, 0x23, 0x00, 0x00, 0x00,
  0x50, 0x12, 0x00, 0x00, 0x48, 0x12, 0x00, 0x00, 0x30, 0x12, 0x00, 0x00,
  0x0c, 0x12, 0x00, 0x00, 0x5c, 0x11, 0x00, 0x00, 0xcc, 0x10, 0x00, 0x00,
  0xbc, 0x0a, 0x00, 0x00, 0xec, 0x09, 0x00, 0x00, 0x5c, 0x05, 0x00, 0x00,
  0xec, 0x04, 0x00, 0x00, 0x04, 0x04, 0x00, 0x00, 0x94, 0x03, 0x00, 0x00,
  0x64, 0x02, 0x00, 0x00, 0x24, 0x02, 0x00, 0x00, 0xa8, 0x01, 0x00, 0x00,
  0x68, 0x01, 0x00, 0x00, 0x4c, 0x01, 0x00, 0x00, 0x38, 0x01, 0x00, 0x00,
  0x1c, 0x01, 0x00, 0x00, 0x14, 0x01, 0x00, 0x00, 0x0c, 0x01, 0x00, 0x00,
  0x04, 0x01, 0x00, 0x00, 0xfc, 0x00, 0x00, 0x00, 0xf4, 0x00, 0x00, 0x00,
  0xec, 0x00, 0x00, 0x00, 0xe4, 0x00, 0x00, 0x00, 0xdc, 0x00, 0x00, 0x00,
  0xd4, 0x00, 0x00, 0x00, 0xcc, 0x00, 0x00, 0x00, 0xc4, 0x00, 0x00, 0x00,
  0xbc, 0x00, 0x00, 0x00, 0xb4, 0x00, 0x00, 0x00, 0x94, 0x00, 0x00, 0x00,
  0x74, 0x00, 0x00, 0x00, 0x04, 0x00, 0x00, 0x00, 0x96, 0xed, 0xff, 0xff,
  0x04, 0x00, 0x00, 0x00, 0x60, 0x00, 0x00, 0x00, 0x0c, 0x00, 0x00, 0x00,
  0x08, 0x00, 0x0e, 0x00, 0x08, 0x00, 0x04, 0x00, 0x08, 0x00, 0x00, 0x00,
  0x10, 0x00, 0x00, 0x00, 0x28, 0x00, 0x00, 0x00, 0x00, 0x00, 0x06, 0x00,
  0x08, 0x00, 0x04, 0x00, 0x06, 0x00, 0x00, 0x00, 0x04, 0x00, 0x00, 0x00,
  0x01, 0x00, 0x00, 0x00, 0xeb, 0x03, 0x00, 0x00, 0x0c, 0x00, 0x18, 0x00,
  0x14, 0x00, 0x10, 0x00, 0x0c, 0x00, 0x04, 0x00, 0x0c, 0x00, 0x00, 0x00,
  0x1b, 0xae, 0x93, 0xb2, 0xc9, 0xa1, 0xac, 0xb1, 0x02, 0x00, 0x00, 0x00,
  0x02, 0x00, 0x00, 0x00, 0x04, 0x00, 0x00, 0x00, 0x06, 0x00, 0x00, 0x00,
  0x32, 0x2e, 0x31, 0x39, 0x2e, 0x30, 0x00, 0x00, 0x02, 0xee, 0xff, 0xff,
  0x04, 0x00, 0x00, 0x00, 0x10, 0x00, 0x00, 0x00, 0x00, 0x00, 0x00, 0x00,
  0x00, 0x00, 0x00, 0x00, 0x00, 0x00, 0x00, 0x00, 0x00, 0x00, 0x00, 0x00,
  0x1e, 0xee, 0xff, 0xff, 0x04, 0x00, 0x00, 0x00, 0x10, 0x00, 0x00, 0x00,
  0x31, 0x2e, 0x31, 0x34, 0x2e, 0x30, 0x00, 0x00, 0x00, 0x00, 0x00, 0x00,
  0x00, 0x00, 0x00, 0x00, 0xb0, 0xc9, 0xff, 0xff, 0xb4, 0xc9, 0xff, 0xff,
  0xb8, 0xc9, 0xff, 0xff, 0xbc, 0xc9, 0xff, 0xff, 0xc0, 0xc9, 0xff, 0xff,
  0xc4, 0xc9, 0xff, 0xff, 0xc8, 0xc9, 0xff, 0xff, 0xcc, 0xc9, 0xff, 0xff,
  0xd0, 0xc9, 0xff, 0xff, 0xd4, 0xc9, 0xff, 0xff, 0xd8, 0xc9, 0xff, 0xff,
  0xdc, 0xc9, 0xff, 0xff, 0xe0, 0xc9, 0xff, 0xff, 0x6e, 0xee, 0xff, 0xff,
  0x04, 0x00, 0x00, 0x00, 0x09, 0x00, 0x00, 0x00, 0x81, 0x13, 0x7a, 0xab,
  0x1b, 0x74, 0x10, 0x77, 0x15, 0x00, 0x00, 0x00, 0x86, 0xee, 0xff, 0xff,
  0x04, 0x00, 0x00, 0x00, 0x04, 0x00, 0x00, 0x00, 0x00, 0x00, 0x00, 0x00,
  0x96, 0xee, 0xff, 0xff, 0x04, 0x00, 0x00, 0x00, 0x0c, 0x00, 0x00, 0x00,
  0x7f, 0x7f, 0x7f, 0x81, 0x7f, 0x7f, 0x7f, 0x7f, 0x81, 0x7f, 0x7f, 0x7f,
  0xae, 0xee, 0xff, 0xff, 0x04, 0x00, 0x00, 0x00, 0x30, 0x00, 0x00, 0x00,
  0x7e, 0x34, 0x00, 0x00, 0xb7, 0x2b, 0x00, 0x00, 0x36, 0x2b, 0x00, 0x00,
  0x30, 0xdb, 0xff, 0xff, 0xf0, 0x30, 0x00, 0x00, 0xa9, 0x25, 0x00, 0x00,
  0xcd, 0x2c, 0x00, 0x00, 0xff, 0x24, 0x00, 0x00, 0x9b, 0xdc, 0xff, 0xff,
  0x18, 0x20, 0x00, 0x00, 0x8b, 0x21, 0x00, 0x00, 0x15, 0x21, 0x00, 0x00,
  0xea, 0xee, 0xff, 0xff, 0x04, 0x00, 0x00, 0x00, 0x6c, 0x00, 0x00, 0x00,
  0x4a, 0x08, 0x4f, 0xa8, 0xd2, 0x13, 0x7f, 0xec, 0x9d, 0x05, 0x90, 0xfb,
  0xa1, 0xb9, 0xd6, 0xe0, 0x28, 0x33, 0x56, 0x7f, 0x0a, 0x70, 0xad, 0x6c,
  0xe0, 0x7f, 0xb2, 0xf5, 0xf8, 0x8c, 0xc0, 0x1a, 0xf3, 0x81, 0x42, 0x4c,
  0x7f, 0x42, 0x1c, 0xf6, 0x20, 0x55, 0x5b, 0xef, 0x86, 0xbc, 0x81, 0x81,
  0x6c, 0xd4, 0xc9, 0xf7, 0x64, 0x1a, 0x8f, 0xa0, 0x2c, 0x98, 0x2d, 0x26,
  0x5b, 0x45, 0xe2, 0x7f, 0x05, 0x32, 0xd3, 0xa4, 0xd6, 0x09, 0xc1, 0x02,
  0x0a, 0x22, 0x7f, 0xdb, 0x2e, 0x81, 0xfe, 0x46, 0x81, 0xbf, 0xf3, 0x43,
  0x3f, 0x91, 0xbb, 0xf3, 0xbe, 0xed, 0x04, 0x96, 0xf6, 0xf3, 0x4f, 0xe6,
  0xd7, 0xf7, 0xd8, 0x75, 0x81, 0x19, 0x1e, 0xd9, 0xf0, 0xf5, 0xd0, 0xe7,
  0x62, 0xef, 0xff, 0xff, 0x04, 0x00, 0x00, 0x00, 0x30, 0x00, 0x00, 0x00,
  0x00, 0x00, 0x00, 0x00, 0x00, 0x00, 0x00, 0x00, 0x00, 0x00, 0x00, 0x00,
  0x00, 0x00, 0x00, 0x00, 0x00, 0x00, 0x00, 0x00, 0x00, 0x00, 0x00, 0x00,
  0x00, 0x00, 0x00, 0x00, 0x00, 0x00, 0x00, 0x00, 0x00, 0x00, 0x00, 0x00,
  0x00, 0x00, 0x00, 0x00, 0x00, 0x00, 0x00, 0x00, 0x00, 0x00, 0x00, 0x00,
  0x9e, 0xef, 0xff, 0xff, 0x04, 0x00, 0x00, 0x00, 0x20, 0x01, 0x00, 0x00,
  0x5b, 0x12, 0xe3, 0x81, 0xef, 0xf2, 0xcc, 0xb6, 0xd4, 0x2c, 0x10, 0xaf,
  0x04, 0x7b, 0x1e, 0xf1, 0x81, 0x95, 0x1b, 0x6c, 0xac, 0x4e, 0xd3, 0xa8,
  0x42, 0xd3, 0x7f, 0x72, 0xbf, 0xd2, 0x2c, 0xb9, 0x2a, 0x6a, 0x53, 0x17,
  0x0c, 0x16, 0xbf, 0xe2, 0x9a, 0xaa, 0xa4, 0x35, 0x7f, 0x2b, 0x6e, 0xa2,
  0x69, 0x70, 0x81, 0xd3, 0xda, 0xf1, 0x03, 0x15, 0xac, 0xd7, 0xee, 0xea,
  0x12, 0x14, 0xc8, 0x7f, 0x58, 0xa4, 0xf0, 0xfe, 0xf2, 0xc6, 0x62, 0x2f,
  0xe3, 0xf3, 0x32, 0x14, 0xdd, 0xb6, 0xf9, 0x6a, 0xf9, 0x6a, 0xeb, 0x7f,
  0xc4, 0xe2, 0x32, 0x90, 0xd6, 0xf4, 0x81, 0x01, 0x42, 0xdc, 0xc2, 0xb0,
  0xd8, 0xfe, 0x0b, 0x1e, 0xd5, 0xd3, 0x3e, 0x25, 0xf9, 0x48, 0x7f, 0xf0,
  0xef, 0xd9, 0xe3, 0xdb, 0x0b, 0x05, 0x10, 0x1d, 0x81, 0x04, 0xf2, 0xe2,
  0xbf, 0xc5, 0x14, 0x31, 0xf3, 0xfc, 0x0d, 0x2a, 0x81, 0xf6, 0xfe, 0xc9,
  0xe1, 0x81, 0xae, 0x19, 0x11, 0xef, 0xd9, 0x06, 0x12, 0x1b, 0x5e, 0x03,
  0x3a, 0xec, 0xb7, 0xfe, 0x9c, 0xb1, 0xe5, 0xb0, 0x32, 0xc9, 0x84, 0x7f,
  0x8c, 0x09, 0x81, 0x03, 0xa8, 0x2c, 0x97, 0x34, 0x55, 0x5e, 0x17, 0xec,
  0x91, 0xb2, 0x81, 0x85, 0xa8, 0x1a, 0x78, 0x5e, 0x6f, 0x73, 0x76, 0xf4,
  0x31, 0xe5, 0xd7, 0x4a, 0x17, 0x05, 0xa7, 0xc6, 0x81, 0xdf, 0x0e, 0x14,
  0x2f, 0xb0, 0x2d, 0x7f, 0xe5, 0x3b, 0x3c, 0x33, 0x7f, 0xae, 0xa9, 0x33,
  0x29, 0xf5, 0xf9, 0x26, 0xbd, 0x63, 0xef, 0x81, 0x11, 0x0c, 0xef, 0xd9,
  0x1d, 0xf1, 0x7f, 0xe1, 0xf8, 0x08, 0x5c, 0x28, 0xf3, 0x28, 0x3a, 0xe3,
  0x19, 0x81, 0x30, 0xac, 0x19, 0xdf, 0x7f, 0x4b, 0x50, 0x3b, 0x53, 0xb0,
  0x13, 0x43, 0xbd, 0x81, 0x9b, 0xc9, 0xde, 0xf9, 0xcc, 0xd4, 0x3d, 0x3d,
  0x31, 0x08, 0xe5, 0x7f, 0x52, 0x4a, 0x30, 0x1a, 0x0c, 0x17, 0xde, 0x2e,
  0xc9, 0x52, 0x29, 0x8a, 0xe4, 0xec, 0xb6, 0x7f, 0x1a, 0x27, 0xb3, 0xe2,
  0xd5, 0xf1, 0x38, 0xff, 0xff, 0xf2, 0xe0, 0x06, 0x7f, 0xb6, 0xd3, 0x26,
  0xca, 0xf0, 0xff, 0xff, 0x04, 0x00, 0x00, 0x00, 0x60, 0x00, 0x00, 0x00,
  0xdc, 0xfa, 0xff, 0xff, 0xe4, 0xfa, 0xff, 0xff, 0x6f, 0x00, 0x00, 0x00,
  0x66, 0x0c, 0x00, 0x00, 0xd6, 0xe3, 0xff, 0xff, 0xba, 0xf6, 0xff, 0xff,
  0x8e, 0x02, 0x00, 0x00, 0xa2, 0x0e, 0x00, 0x00, 0x42, 0x07, 0x00, 0x00,
  0x92, 0xef, 0xff, 0xff, 0xb8, 0xf6, 0xff, 0xff, 0xf5, 0x04, 0x00, 0x00,
  0x89, 0xf2, 0xff, 0xff, 0xfa, 0x0c, 0x00, 0x00, 0xb0, 0x15, 0x00, 0x00,
  0x1c, 0xf1, 0xff, 0xff, 0x20, 0x11, 0x00, 0x00, 0xac, 0xf9, 0xff, 0xff,
  0x0a, 0xfd, 0xff, 0xff, 0xef, 0x12, 0x00, 0x00, 0x2a, 0x02, 0x00, 0x00,
  0xee, 0xf9, 0xff, 0xff, 0x8a, 0x0d, 0x00, 0x00, 0x20, 0x10, 0x00, 0x00,
  0x36, 0xf1, 0xff, 0xff, 0x04, 0x00, 0x00, 0x00, 0xd8, 0x00, 0x00, 0x00,
  0x12, 0x01, 0xb1, 0xab, 0xde, 0xdd, 0x03, 0x1b, 0x7f, 0xef, 0x6c, 0x74,
  0xe1, 0x15, 0x8e, 0x8a, 0x0c, 0x2d, 0x43, 0x7b, 0x8b, 0xd1, 0x81, 0xac,
  0xec, 0x99, 0xf7, 0x55, 0x09, 0x0a, 0xcd, 0x36, 0x1e, 0x81, 0xce, 0x3e,
  0x31, 0x64, 0x26, 0x20, 0x60, 0xfa, 0xda, 0xf7, 0xef, 0x53, 0xcd, 0x23,
  0xb6, 0x37, 0x64, 0xcc, 0xe1, 0x81, 0xae, 0xdd, 0xe1, 0x1f, 0x0f, 0x24,
  0xe3, 0x56, 0xdd, 0x7a, 0xe7, 0x52, 0xa3, 0xc6, 0x2d, 0x2c, 0xee, 0x3d,
  0xd5, 0x17, 0x97, 0x9f, 0x81, 0xaa, 0x05, 0x52, 0x70, 0xee, 0x7f, 0x4e,
  0xe4, 0x58, 0x81, 0xcf, 0xd6, 0x59, 0x29, 0x7f, 0xb5, 0xd5, 0x86, 0x81,
  0xbd, 0x9b, 0xed, 0x44, 0x06, 0xb7, 0xc1, 0x7f, 0x69, 0xb9, 0xdf, 0x2f,
  0x7f, 0x52, 0x16, 0x28, 0x47, 0x1b, 0xbb, 0x07, 0x01, 0x7f, 0xa8, 0xf7,
  0x81, 0x25, 0x4d, 0x81, 0xcb, 0xa0, 0x81, 0x41, 0xc4, 0x1c, 0x1f, 0xe6,
  0x2f, 0x52, 0x02, 0x4d, 0x91, 0x7f, 0x81, 0x0c, 0x02, 0x47, 0xe8, 0x14,
  0xf6, 0x14, 0x81, 0x9f, 0x87, 0xf3, 0x15, 0x3c, 0x5a, 0xee, 0x5a, 0x7f,
  0xb0, 0x26, 0xa6, 0x81, 0x16, 0x7a, 0x33, 0x58, 0x81, 0x24, 0x97, 0xae,
  0xec, 0x81, 0xdf, 0x2c, 0x12, 0x42, 0xc1, 0x3c, 0x23, 0x9b, 0xe1, 0x3b,
  0x49, 0x7f, 0x0d, 0x22, 0x19, 0xdc, 0xfd, 0xf1, 0x30, 0x51, 0xb8, 0x2f,
  0xb9, 0x2a, 0x3d, 0xed, 0xcb, 0xcb, 0xb0, 0x0b, 0xd7, 0x2a, 0x01, 0x04,
  0xc3, 0x2d, 0xf1, 0x49, 0x81, 0x38, 0x90, 0x9c, 0x31, 0x42, 0x22, 0x7a,
  0x1a, 0xf2, 0xff, 0xff, 0x04, 0x00, 0x00, 0x00, 0x60, 0x00, 0x00, 0x00,
  0x00, 0x00, 0x00, 0x00, 0x00, 0x00, 0x00, 0x00, 0x00, 0x00, 0x00, 0x00,
  0x00, 0x00, 0x00, 0x00, 0x00, 0x00, 0x00, 0x00, 0x00, 0x00, 0x00, 0x00,
  0x00, 0x00, 0x00, 0x00, 0x00, 0x00, 0x00, 0x00, 0x00, 0x00, 0x00, 0x00,
  0x00, 0x00, 0x00, 0x00, 0x00, 0x00, 0x00, 0x00, 0x00, 0x00, 0x00, 0x00,
  0x00, 0x00, 0x00, 0x00, 0x00, 0x00, 0x00, 0x00, 0x00, 0x00, 0x00, 0x00,
  0x00, 0x00, 0x00, 0x00, 0x00, 0x00, 0x00, 0x00, 0x00, 0x00, 0x00, 0x00,
  0x00, 0x00, 0x00, 0x00, 0x00, 0x00, 0x00, 0x00, 0x00, 0x00, 0x00, 0x00,
  0x00, 0x00, 0x00, 0x00, 0x00, 0x00, 0x00, 0x00, 0x00, 0x00, 0x00, 0x00,
  0x86, 0xf2, 0xff, 0xff, 0x04, 0x00, 0x00, 0x00, 0x80, 0x04, 0x00, 0x00,
  0xed, 0x1c, 0x39, 0x1e, 0xeb, 0xdd, 0x81, 0xf2, 0xfd, 0x33, 0xf1, 0xd7,
  0x28, 0xa8, 0xf8, 0x43, 0xe6, 0x2d, 0xea, 0x17, 0x16, 0x26, 0x09, 0xd5,
  0x0f, 0x3c, 0x3c, 0xc0, 0x62, 0x94, 0x81, 0xaf, 0xfa, 0x17, 0x5e, 0x05,
  0x21, 0xad, 0x11, 0x24, 0xcd, 0x10, 0xc0, 0x52, 0x52, 0x35, 0x2a, 0x04,
  0x1c, 0xf0, 0xde, 0x0b, 0x5a, 0x52, 0x08, 0xc8, 0x81, 0xac, 0x27, 0x3d,
  0xe4, 0x04, 0xe7, 0x76, 0x04, 0xf9, 0xfb, 0x19, 0xe4, 0x12, 0xe9, 0xc8,
  0xb7, 0x16, 0x41, 0xe9, 0x54, 0x98, 0xf5, 0xcf, 0x3a, 0x02, 0xef, 0xea,
  0x7f, 0x90, 0x2d, 0x6c, 0xaf, 0xc7, 0x0b, 0x69, 0x44, 0x7b, 0x05, 0xe2,
  0xfa, 0xb4, 0x11, 0xf0, 0x28, 0xed, 0xdb, 0xee, 0x3e, 0x53, 0x10, 0x0e,
  0xc1, 0x59, 0x19, 0x7f, 0x04, 0xec, 0x30, 0x54, 0x25, 0x0b, 0xa3, 0x17,
  0x81, 0xea, 0x3e, 0x12, 0x0f, 0xc6, 0xf5, 0x19, 0x01, 0xd1, 0x20, 0x70,
  0x26, 0x35, 0x22, 0x21, 0x93, 0x2e, 0x4a, 0xd0, 0xf3, 0x56, 0x13, 0xe7,
  0xb1, 0x7f, 0x32, 0x47, 0xf6, 0x0d, 0xa3, 0xef, 0x1a, 0x47, 0x1b, 0x64,
  0x3a, 0xf4, 0x3a, 0x0a, 0x50, 0xe7, 0xc4, 0xe1, 0xe0, 0x20, 0x03, 0xce,
  0xd1, 0x12, 0x3f, 0x19, 0x7f, 0x65, 0x15, 0xa3, 0x0c, 0xcc, 0x4c, 0x0d,
  0xb1, 0x41, 0x17, 0xbd, 0xaf, 0x38, 0xb5, 0xa2, 0xe0, 0xb9, 0x2f, 0x2c,
  0xaf, 0xbb, 0x44, 0x3e, 0x72, 0x2d, 0xfb, 0x5f, 0x52, 0x39, 0x7f, 0x96,
  0xdf, 0x6d, 0x45, 0x73, 0x30, 0x33, 0x22, 0xdb, 0xba, 0x91, 0xde, 0xdd,
  0x18, 0x23, 0xf5, 0x81, 0x1f, 0xc4, 0xf6, 0x36, 0xe0, 0x88, 0x0e, 0x14,
  0x57, 0x19, 0xeb, 0xf3, 0x34, 0x1c, 0xe4, 0xbc, 0xf0, 0x2e, 0x11, 0xe8,
  0xcd, 0x28, 0xd2, 0xf1, 0x8b, 0x00, 0xbe, 0x40, 0xb3, 0xd6, 0x1e, 0x4f,
  0x4c, 0x1d, 0x00, 0x40, 0x81, 0xee, 0xe6, 0xe4, 0xf8, 0x06, 0x54, 0xc6,
  0x81, 0xe9, 0xe3, 0xda, 0x5e, 0xf6, 0x36, 0x1b, 0x41, 0x9e, 0xe1, 0x01,
  0x6e, 0x15, 0x41, 0xf5, 0xef, 0xc1, 0xcf, 0xfc, 0x21, 0x2f, 0x2f, 0xed,
  0x9e, 0x47, 0xd0, 0x09, 0xb7, 0xcd, 0xe4, 0xdb, 0xc2, 0xa4, 0xd7, 0x0f,
  0x17, 0x63, 0x1e, 0x9a, 0x33, 0xe0, 0x81, 0x0d, 0xb7, 0xde, 0xec, 0x18,
  0xce, 0xb5, 0x88, 0x49, 0xdd, 0x07, 0xc4, 0xab, 0x5c, 0x54, 0xf7, 0xbc,
  0xe6, 0x56, 0x38, 0xc1, 0xf5, 0xf9, 0x18, 0xd3, 0xcd, 0xe5, 0x7f, 0xc8,
  0x3e, 0x23, 0x81, 0xda, 0xef, 0x1b, 0xe9, 0xc0, 0xc4, 0xe5, 0xd0, 0xfc,
  0xbe, 0xcf, 0x10, 0x07, 0xe7, 0xc1, 0xe2, 0x0d, 0x18, 0xc6, 0x09, 0xb4,
  0xba, 0x1a, 0xfe, 0xbb, 0x2e, 0xf3, 0x3c, 0xf2, 0xf1, 0x8b, 0xed, 0x3f,
  0x52, 0x2b, 0xd3, 0xc6, 0xff, 0x1e, 0x81, 0xa3, 0xb7, 0x0c, 0x37, 0x52,
  0x65, 0xd3, 0x17, 0x0d, 0xa7, 0x1f, 0xf7, 0xcf, 0x2e, 0xd4, 0x81, 0x03,
  0xe6, 0xe6, 0x11, 0x70, 0x21, 0xfc, 0xbd, 0x00, 0x13, 0xc9, 0xb9, 0x97,
  0xb4, 0xa0, 0xa5, 0x3d, 0x0f, 0xff, 0xd8, 0xab, 0x61, 0xe9, 0x3b, 0xf3,
  0xf2, 0xdf, 0xf1, 0x11, 0xe1, 0xcb, 0xfe, 0xa4, 0xe3, 0x11, 0x7f, 0xe1,
  0xf1, 0x28, 0x06, 0x36, 0xf5, 0xd0, 0x28, 0xe7, 0xb3, 0xe7, 0xa5, 0xc1,
  0x1e, 0x63, 0xf2, 0x21, 0x1b, 0x27, 0x81, 0x62, 0xd9, 0xad, 0xf9, 0x9b,
  0xeb, 0x7f, 0xf2, 0xfd, 0x49, 0x04, 0x0d, 0xe9, 0xde, 0x21, 0x34, 0x2b,
  0x00, 0x35, 0x24, 0x0a, 0x10, 0xd3, 0x0b, 0xf3, 0x03, 0xe0, 0xc9, 0xec,
  0xfb, 0xca, 0x21, 0x15, 0xc6, 0x3d, 0x3f, 0xc7, 0xef, 0xe6, 0x8c, 0xdc,
  0xdb, 0xf6, 0x1d, 0x08, 0xed, 0xb5, 0x13, 0x41, 0x01, 0x81, 0xeb, 0x31,
  0xec, 0x04, 0xbd, 0x04, 0xf3, 0xf0, 0x34, 0x1c, 0xf0, 0x22, 0x26, 0xf6,
  0xde, 0xed, 0x33, 0x01, 0x15, 0x03, 0x81, 0xfb, 0xe2, 0xd8, 0xdb, 0x26,
  0x09, 0xa8, 0xd8, 0x9f, 0x1b, 0x38, 0x3a, 0xb5, 0xe8, 0x81, 0x48, 0x0f,
  0x20, 0xce, 0x28, 0x40, 0xf8, 0xf3, 0xf3, 0xd7, 0x12, 0x38, 0x48, 0x26,
  0x54, 0xb0, 0x81, 0xb2, 0xc6, 0xec, 0x52, 0xfd, 0x5e, 0xc0, 0x11, 0xfa,
  0xfa, 0x57, 0x95, 0xb3, 0x1b, 0x63, 0x03, 0xa1, 0x46, 0xda, 0x4a, 0x07,
  0x0e, 0x12, 0x07, 0xd5, 0x21, 0x04, 0xb8, 0x19, 0x20, 0x89, 0x5a, 0xe0,
  0xf7, 0xea, 0xc9, 0xda, 0x20, 0x05, 0xcd, 0xe6, 0x7f, 0xcf, 0x0d, 0x3d,
  0xb5, 0x20, 0xf0, 0x7f, 0xd4, 0xa3, 0xa2, 0x5c, 0x1e, 0xf4, 0x4e, 0xd9,
  0xfa, 0xfd, 0x49, 0x0a, 0xec, 0xbd, 0x93, 0xd8, 0x14, 0xd7, 0xff, 0x10,
  0x97, 0xcc, 0x93, 0x45, 0xc9, 0x60, 0xd8, 0x11, 0xaf, 0x81, 0x32, 0x84,
  0xf8, 0xa9, 0xef, 0xb9, 0xe1, 0xf6, 0x34, 0xa1, 0xa9, 0xde, 0xa6, 0x0f,
  0x2c, 0xbc, 0xaa, 0x3c, 0xf4, 0xed, 0xb7, 0xe7, 0x40, 0x34, 0x2b, 0x0b,
  0x0c, 0xf7, 0x7f, 0xf3, 0x1a, 0xd5, 0x00, 0xed, 0xcc, 0x3b, 0x33, 0xc7,
  0x40, 0xea, 0xbe, 0xfe, 0xc3, 0xea, 0xc9, 0xc0, 0xb1, 0x0b, 0x1b, 0x03,
  0x04, 0x0b, 0x7f, 0xf9, 0x04, 0xba, 0x3c, 0xf9, 0xe1, 0x5e, 0xff, 0xc8,
  0x96, 0xf5, 0x2b, 0x09, 0x7f, 0x6f, 0x28, 0x9f, 0x38, 0xb5, 0x4b, 0xed,
  0x1b, 0x22, 0xe0, 0xe3, 0x93, 0x36, 0xf6, 0x99, 0xb7, 0xb1, 0x1d, 0xff,
  0x4f, 0xa7, 0xd6, 0x10, 0x69, 0xae, 0xe7, 0x55, 0xbd, 0x1a, 0x0c, 0xe1,
  0xf8, 0xb2, 0x3a, 0x63, 0xe1, 0x33, 0x5f, 0x31, 0xee, 0x7f, 0xc4, 0xd7,
  0x81, 0xdb, 0x63, 0xf4, 0xe5, 0x4e, 0x0a, 0x5a, 0x18, 0xbd, 0x8b, 0x79,
  0x6c, 0x97, 0xaa, 0x6c, 0xc2, 0xfa, 0x61, 0x13, 0x89, 0x3c, 0x02, 0xbc,
  0x2f, 0x25, 0xea, 0xd6, 0xe2, 0xf2, 0xea, 0xf2, 0xc6, 0xb3, 0xe9, 0x76,
  0xc0, 0xf3, 0x7f, 0x92, 0xd0, 0x03, 0xb4, 0xbf, 0x4c, 0xec, 0xa1, 0x2d,
  0xe7, 0x2c, 0x44, 0x4d, 0xd8, 0xb0, 0x81, 0x11, 0xfc, 0x5a, 0xe5, 0xdb,
  0x73, 0x8a, 0xd6, 0x6b, 0x24, 0x2d, 0xd7, 0x35, 0x25, 0xda, 0x17, 0xc2,
  0xec, 0x13, 0x02, 0xe5, 0xf7, 0xbb, 0xfc, 0xe5, 0xe3, 0x34, 0xf5, 0x08,
  0xd6, 0x27, 0x58, 0x41, 0x54, 0x0f, 0x2a, 0x7f, 0xdb, 0x1b, 0xd5, 0x04,
  0xb6, 0xbe, 0x00, 0x0c, 0x2e, 0x15, 0x59, 0xa7, 0x59, 0xa4, 0x4f, 0x18,
  0x1e, 0x9a, 0xf6, 0xe6, 0xe6, 0xd8, 0x29, 0x81, 0x0f, 0xc8, 0x38, 0x4e,
  0x1c, 0xd4, 0x02, 0xf9, 0x95, 0xed, 0xd0, 0xb6, 0x00, 0x11, 0xa0, 0x4e,
  0xd7, 0xc0, 0x2a, 0xd4, 0x2d, 0x2a, 0xc8, 0x6b, 0x6f, 0x81, 0x14, 0xe7,
  0x2d, 0x0a, 0x39, 0x69, 0x5c, 0xcb, 0x23, 0x53, 0x28, 0x1a, 0x18, 0x50,
  0xde, 0x53, 0x67, 0xe3, 0xda, 0x41, 0xe3, 0xb9, 0xa2, 0x81, 0x02, 0x6b,
  0xfa, 0xdf, 0xa7, 0x14, 0xca, 0x0c, 0xfd, 0x96, 0xc1, 0x3f, 0x1d, 0x5f,
  0x2f, 0x05, 0xf3, 0xd2, 0x7f, 0xef, 0x66, 0xd3, 0xe2, 0x13, 0x06, 0xdb,
  0x0f, 0x42, 0x0b, 0x3e, 0xe0, 0xec, 0xdc, 0xf8, 0x27, 0x2d, 0xee, 0x4b,
  0xce, 0xf5, 0x7a, 0xd0, 0x41, 0x01, 0x55, 0x06, 0xea, 0x3e, 0x2a, 0x81,
  0xf8, 0xf8, 0x19, 0xde, 0x6b, 0x81, 0x32, 0xd4, 0x22, 0xb7, 0x5f, 0xbb,
  0xc8, 0xfb, 0x13, 0xf7, 0xc9, 0x01, 0xc3, 0x51, 0xe5, 0x4c, 0x3e, 0x19,
  0xe1, 0xe3, 0xfb, 0x6e, 0xc9, 0xf6, 0x97, 0x2f, 0xdc, 0x21, 0x18, 0x26,
  0xed, 0x10, 0x02, 0x0d, 0xef, 0x7f, 0xde, 0x15, 0xee, 0xf8, 0xc0, 0xb5,
  0x33, 0xca, 0x14, 0xcd, 0xf9, 0x03, 0x04, 0xb4, 0x1f, 0xc0, 0x93, 0x27,
  0xe7, 0x23, 0x65, 0xb4, 0xbc, 0xdc, 0xc6, 0x23, 0x7f, 0xe8, 0xeb, 0x47,
  0x26, 0xc1, 0xc4, 0x34, 0x2a, 0xc0, 0x73, 0x2a, 0x78, 0xdc, 0x0d, 0x61,
  0xbf, 0xbd, 0x0e, 0xf3, 0xc1, 0xe6, 0x00, 0x02, 0x4e, 0x17, 0x81, 0xfc,
  0xe6, 0x13, 0xe5, 0x0e, 0x0a, 0x2d, 0x00, 0xbb, 0xe3, 0xfb, 0x14, 0xe6,
  0x13, 0x06, 0x2b, 0xe6, 0xf3, 0xee, 0xe8, 0x7f, 0x4a, 0x15, 0xf1, 0x3e,
  0xcb, 0xd7, 0xea, 0x44, 0x1a, 0x81, 0xf4, 0xf5, 0xbf, 0x24, 0xe2, 0xf1,
  0xdd, 0xfa, 0x18, 0x0a, 0xca, 0x14, 0xd7, 0x46, 0xbb, 0x02, 0x18, 0xe9,
  0x19, 0xff, 0x25, 0x1f, 0xf1, 0xf2, 0x81, 0x00, 0xef, 0x1a, 0x06, 0x31,
  0xda, 0xd4, 0xca, 0x36, 0xed, 0xde, 0xe0, 0xe2, 0xdd, 0xdc, 0x0b, 0xe0,
  0xd5, 0xb6, 0xd1, 0x4e, 0x05, 0xeb, 0x01, 0xc5, 0x81, 0x01, 0x70, 0x23,
  0xf1, 0x08, 0xcb, 0xcc, 0xf1, 0x73, 0x98, 0x0e, 0x9f, 0xbe, 0x70, 0xf4,
  0x12, 0xf7, 0xff, 0xff, 0x04, 0x00, 0x00, 0x00, 0xc0, 0x00, 0x00, 0x00,
  0xc2, 0xfc, 0xff, 0xff, 0x34, 0xff, 0xff, 0xff, 0xac, 0x00, 0x00, 0x00,
  0xd6, 0xf6, 0xff, 0xff, 0x02, 0xee, 0xff, 0xff, 0x8b, 0xe6, 0xff, 0xff,
  0xca, 0xf5, 0xff, 0xff, 0xa7, 0x0a, 0x00, 0x00, 0xdf, 0xf6, 0xff, 0xff,
  0x49, 0xf4, 0xff, 0xff, 0x6a, 0xf1, 0xff, 0xff, 0xde, 0xf2, 0xff, 0xff,
  0x1f, 0xf4, 0xff, 0xff, 0x7d, 0x06, 0x00, 0x00, 0x73, 0x0d, 0x00, 0x00,
  0x74, 0xf4, 0xff, 0xff, 0x75, 0x04, 0x00, 0x00, 0x5f, 0x00, 0x00, 0x00,
  0x86, 0xfd, 0xff, 0xff, 0x84, 0xff, 0xff, 0xff, 0xc5, 0x10, 0x00, 0x00,
  0x79, 0xfd, 0xff, 0xff, 0xbc, 0x04, 0x00, 0x00, 0x39, 0xfe, 0xff, 0xff,
  0xb2, 0xfd, 0xff, 0xff, 0x4a, 0xf3, 0xff, 0xff, 0xab, 0xfd, 0xff, 0xff,
  0xca, 0x00, 0x00, 0x00, 0x26, 0x06, 0x00, 0x00, 0xd5, 0xff, 0xff, 0xff,
  0xfd, 0xf7, 0xff, 0xff, 0xfc, 0xe5, 0xff, 0xff, 0x0d, 0x02, 0x00, 0x00,
  0x67, 0xfd, 0xff, 0xff, 0x7b, 0xf7, 0xff, 0xff, 0x3d, 0x09, 0x00, 0x00,
  0x83, 0x06, 0x00, 0x00, 0x98, 0x02, 0x00, 0x00, 0xbd, 0x02, 0x00, 0x00,
  0x3b, 0x04, 0x00, 0x00, 0x82, 0xfb, 0xff, 0xff, 0x3c, 0xeb, 0xff, 0xff,
  0x27, 0x08, 0x00, 0x00, 0x56, 0xf0, 0xff, 0xff, 0xd9, 0x02, 0x00, 0x00,
  0xc5, 0xf8, 0xff, 0xff, 0x3d, 0xfe, 0xff, 0xff, 0x00, 0x00, 0x00, 0x00,
  0xde, 0xf7, 0xff, 0xff, 0x04, 0x00, 0x00, 0x00, 0x00, 0x06, 0x00, 0x00,
  0x1d, 0xdb, 0x5f, 0x14, 0x1f, 0xbe, 0xee, 0xa5, 0x85, 0xdc, 0x1e, 0x2a,
  0xc4, 0xe4, 0xf5, 0xe0, 0xfc, 0x09, 0x65, 0xec, 0x48, 0xe8, 0x3b, 0xbe,
  0x2d, 0xd8, 0x22, 0x03, 0xa9, 0x98, 0xda, 0xf9, 0x1a, 0xc7, 0x14, 0x20,
  0xad, 0x87, 0x05, 0xce, 0x19, 0x76, 0x0c, 0xca, 0x7f, 0x1d, 0x73, 0x5e,
  0x81, 0xf3, 0xc5, 0xb8, 0xef, 0x0d, 0x32, 0x65, 0x05, 0xd6, 0xf5, 0xb2,
  0x17, 0xf4, 0x60, 0x93, 0xb4, 0x96, 0xaf, 0x74, 0xfa, 0x58, 0x23, 0xfe,
  0x47, 0x50, 0xe7, 0x5a, 0x4c, 0x25, 0x73, 0x29, 0x77, 0x97, 0x07, 0xf7,
  0x44, 0x45, 0x7a, 0x36, 0xfb, 0xca, 0xf1, 0x16, 0xdf, 0x91, 0x90, 0xe8,
  0x39, 0x3b, 0xe0, 0x51, 0x27, 0x81, 0xf7, 0x16, 0xec, 0xe7, 0xc5, 0x08,
  0x2d, 0xe7, 0xc8, 0xee, 0xe1, 0x1c, 0x1e, 0x01, 0xfd, 0x07, 0xf3, 0x18,
  0x2d, 0x05, 0x4c, 0xd6, 0xb8, 0xee, 0x2f, 0xe2, 0x0b, 0x2f, 0x4a, 0xf7,
  0xeb, 0xfc, 0x0f, 0x14, 0x2f, 0x12, 0xc7, 0x26, 0xe7, 0x64, 0x1c, 0x02,
  0x2f, 0xc0, 0xcf, 0x01, 0x0d, 0x37, 0xc3, 0x6b, 0xd6, 0x65, 0xc5, 0x3e,
  0xee, 0xf2, 0xcc, 0x52, 0x21, 0xec, 0x60, 0x36, 0x09, 0xea, 0x28, 0x2b,
  0x03, 0xb9, 0xac, 0xee, 0xd0, 0x4c, 0x28, 0x8a, 0x4d, 0x69, 0x50, 0x68,
  0x40, 0x26, 0x28, 0xc0, 0x98, 0x3f, 0x57, 0xc0, 0x81, 0x18, 0xc9, 0x2b,
  0xf2, 0xe8, 0xed, 0xf3, 0x40, 0x07, 0x2b, 0xe8, 0x1a, 0xd2, 0xb8, 0xe9,
  0x20, 0xee, 0x2f, 0x04, 0x18, 0x81, 0x03, 0x19, 0xd8, 0x33, 0x8e, 0x0f,
  0xc8, 0xda, 0x01, 0xfe, 0xf2, 0xce, 0x01, 0x06, 0x26, 0xd2, 0x25, 0xa0,
  0x38, 0x26, 0x11, 0x14, 0x02, 0x0c, 0xd6, 0x2e, 0x1d, 0x0b, 0xe9, 0x26,
  0xab, 0xd0, 0xf8, 0xd5, 0xff, 0x49, 0x42, 0xd5, 0x0f, 0x46, 0x6e, 0x34,
  0xe4, 0x33, 0x5d, 0xfe, 0x36, 0xc2, 0xe5, 0xd8, 0x25, 0xf7, 0x14, 0xe2,
  0xe8, 0xff, 0xa0, 0x2f, 0xff, 0x03, 0xa8, 0xfd, 0xd2, 0xe9, 0xb5, 0xa6,
  0x26, 0xc9, 0xfc, 0x24, 0xb2, 0x34, 0x0e, 0xe8, 0x41, 0x81, 0x29, 0x14,
  0x32, 0x27, 0xdc, 0x3d, 0x4b, 0xf4, 0xa4, 0xfb, 0x0a, 0x0a, 0x25, 0x42,
  0xf4, 0xe1, 0xc2, 0xcb, 0x35, 0xf9, 0x75, 0xc1, 0x42, 0x9e, 0x1b, 0xbd,
  0xbc, 0xff, 0x17, 0xdf, 0x81, 0xe6, 0xc4, 0xc7, 0xda, 0x70, 0x45, 0x4e,
  0xd1, 0xda, 0x90, 0xc0, 0xd8, 0x5b, 0x23, 0xde, 0xeb, 0x5c, 0x69, 0x2d,
  0xfd, 0xb3, 0x7a, 0x22, 0x35, 0x21, 0x07, 0xf0, 0x81, 0x1c, 0xfa, 0x4f,
  0xbd, 0xc6, 0x2f, 0x1a, 0x4a, 0x10, 0xfc, 0xc4, 0x49, 0xae, 0x73, 0x30,
  0x07, 0xe6, 0x5b, 0xe7, 0x9b, 0x33, 0xed, 0xac, 0x23, 0xf3, 0x00, 0x5a,
  0xf4, 0xc4, 0xf8, 0x98, 0x1e, 0x04, 0x21, 0x39, 0xe9, 0x49, 0x24, 0x40,
  0x36, 0x61, 0x83, 0xf5, 0xad, 0x50, 0x0f, 0x11, 0x7f, 0x6f, 0x63, 0xaa,
  0xfc, 0x7a, 0xcd, 0xed, 0xe3, 0x4c, 0xc3, 0x9a, 0xdf, 0xd4, 0x86, 0x4e,
  0x2e, 0x13, 0xcd, 0x0b, 0xe3, 0x2d, 0x17, 0x44, 0x97, 0x3a, 0xff, 0xf1,
  0x37, 0x26, 0x18, 0x30, 0xe2, 0xf6, 0x85, 0xe3, 0xfc, 0xae, 0xef, 0x9f,
  0x19, 0x0e, 0x6b, 0xcf, 0x1d, 0xf5, 0xa9, 0xcb, 0x85, 0x98, 0x0f, 0xdd,
  0x81, 0xd4, 0x13, 0x05, 0x36, 0x51, 0x39, 0x45, 0xd7, 0x28, 0x3d, 0xc3,
  0x0d, 0xe4, 0x51, 0xdf, 0xc8, 0xec, 0x1d, 0x11, 0x2f, 0x26, 0xfa, 0x33,
  0xfb, 0xf4, 0x02, 0x89, 0xb4, 0x41, 0x19, 0x36, 0x40, 0x0f, 0xe3, 0x7c,
  0xb5, 0xbe, 0x22, 0x81, 0xf7, 0x60, 0x2b, 0xe1, 0xf6, 0x4d, 0x44, 0x2e,
  0xf4, 0x22, 0x3e, 0x1a, 0x53, 0xcf, 0x05, 0xe5, 0x41, 0x01, 0x0e, 0xda,
  0xbf, 0xf6, 0x85, 0x2a, 0x34, 0x12, 0xb7, 0x18, 0xf1, 0xd0, 0xa8, 0x0a,
  0x33, 0xe1, 0x0c, 0x22, 0x99, 0x35, 0x0d, 0x0e, 0x20, 0x9a, 0xf4, 0xf6,
  0x37, 0xda, 0xe2, 0x11, 0xce, 0xe0, 0x94, 0xf3, 0x2e, 0x94, 0xa7, 0xfc,
  0x32, 0xdb, 0x41, 0xd5, 0x9a, 0x6e, 0xcb, 0x72, 0x9b, 0x10, 0x7f, 0x83,
  0x88, 0xc9, 0xba, 0x64, 0xef, 0xc5, 0xac, 0x03, 0x44, 0x98, 0x73, 0x93,
  0x1d, 0x9e, 0x4e, 0x57, 0xcf, 0xe7, 0x67, 0xae, 0x32, 0xac, 0x94, 0xc9,
  0x81, 0x11, 0xf5, 0x22, 0xa2, 0x8e, 0xdf, 0x90, 0xb9, 0xd3, 0xbe, 0x71,
  0x96, 0x31, 0x3a, 0x58, 0x2e, 0xb7, 0xb5, 0x65, 0xb8, 0x34, 0x9d, 0x77,
  0xe9, 0x86, 0xbe, 0x19, 0x53, 0xc0, 0x00, 0x9b, 0xfc, 0x2d, 0x1a, 0x84,
  0x18, 0xa1, 0x79, 0xa0, 0xae, 0xc8, 0x8d, 0xea, 0xb1, 0x0a, 0xbc, 0x59,
  0x05, 0xaa, 0xd0, 0x0f, 0xa0, 0x81, 0xc2, 0x8d, 0xbe, 0x49, 0x91, 0x11,
  0x14, 0xc9, 0xee, 0x23, 0x18, 0xa4, 0xd3, 0x5d, 0x29, 0x83, 0xc2, 0xdb,
  0xb2, 0xc0, 0x41, 0xbb, 0x34, 0x23, 0xc6, 0xe5, 0xbf, 0x4e, 0xf9, 0x44,
  0xd6, 0xad, 0x4d, 0xd7, 0x4d, 0x9a, 0xb8, 0xb3, 0x2a, 0xb9, 0x27, 0x38,
  0xe0, 0x90, 0xef, 0xe7, 0x3a, 0x2e, 0xdc, 0x5f, 0x1a, 0x2b, 0xe2, 0x26,
  0xf7, 0xe1, 0x13, 0x45, 0x48, 0xd9, 0xf7, 0x61, 0xee, 0x17, 0x7a, 0x49,
  0xdc, 0xe7, 0x81, 0xa5, 0x44, 0x59, 0x53, 0xdc, 0x25, 0xba, 0x0a, 0x09,
  0x38, 0x04, 0x24, 0xf5, 0xe6, 0x8d, 0x1b, 0x1c, 0xe2, 0xdf, 0xad, 0x23,
  0xac, 0x11, 0x1c, 0x02, 0xc7, 0x06, 0xc9, 0xf5, 0x48, 0x05, 0xf7, 0x30,
  0x26, 0x50, 0xd5, 0x91, 0x8d, 0x2f, 0xb1, 0x82, 0xff, 0x01, 0xa2, 0x79,
  0xe0, 0x24, 0xa5, 0xef, 0x7c, 0xbe, 0x35, 0xd1, 0xff, 0x81, 0x91, 0xf9,
  0xbc, 0x87, 0xe7, 0x74, 0xc8, 0xfa, 0xc4, 0x93, 0xca, 0xb6, 0x22, 0x81,
  0xa6, 0xf2, 0xf9, 0x01, 0xf6, 0x0b, 0x38, 0xef, 0x40, 0xa9, 0xfe, 0x92,
  0xd5, 0x08, 0x79, 0xa1, 0xcf, 0xf6, 0xce, 0x1a, 0x15, 0x74, 0xbe, 0xfc,
  0x2a, 0x5c, 0x21, 0x21, 0x66, 0x89, 0xf2, 0x28, 0x3f, 0xe5, 0xf6, 0xaa,
  0x29, 0x19, 0x7f, 0x50, 0xf3, 0xcc, 0xb1, 0x22, 0x1d, 0xd3, 0xa1, 0x9e,
  0xe1, 0x35, 0xa9, 0x2d, 0xa7, 0xed, 0x21, 0xfd, 0x06, 0xec, 0x15, 0xe2,
  0xd8, 0x61, 0xfe, 0xbb, 0xae, 0x29, 0xaa, 0x21, 0x09, 0x38, 0x81, 0x4a,
  0x48, 0x36, 0x30, 0x4d, 0x1d, 0xdd, 0x2d, 0x3f, 0xbc, 0xb9, 0xbc, 0xe0,
  0x00, 0x0e, 0x14, 0x37, 0x15, 0xca, 0xdc, 0xfa, 0xf9, 0x1d, 0xf4, 0xaf,
  0x53, 0xe4, 0xd5, 0x22, 0x72, 0x2a, 0x08, 0x15, 0x45, 0x42, 0xe9, 0x28,
  0xf3, 0xdd, 0xce, 0x1b, 0x2b, 0xb6, 0x61, 0xe0, 0x59, 0xb1, 0x3f, 0x81,
  0x95, 0xf9, 0x84, 0xa0, 0x07, 0x2d, 0xa1, 0xe1, 0x09, 0x47, 0x30, 0x67,
  0x73, 0xca, 0xc8, 0x19, 0x93, 0x71, 0x4f, 0xf9, 0xed, 0xed, 0xf0, 0x3a,
  0xbf, 0xd9, 0x11, 0xc4, 0xce, 0x6f, 0x3d, 0xcc, 0x16, 0x44, 0x5b, 0x06,
  0xd2, 0x27, 0x45, 0xd9, 0x2b, 0xf4, 0xd8, 0xed, 0xfd, 0xea, 0xe9, 0xf0,
  0xea, 0x20, 0xc8, 0x2b, 0x27, 0x07, 0xb1, 0x29, 0x17, 0xc0, 0xa7, 0xc7,
  0x45, 0xe6, 0x2b, 0x1d, 0xbf, 0x2e, 0x03, 0xdc, 0x3d, 0x81, 0x21, 0xf2,
  0xf3, 0x2c, 0x05, 0xc9, 0xe9, 0x20, 0xac, 0xf7, 0xaf, 0xe9, 0x46, 0x6e,
  0xee, 0x0a, 0x9a, 0xde, 0x05, 0x0f, 0x7f, 0x03, 0x2b, 0x01, 0x4d, 0xc4,
  0x9e, 0xe0, 0xfd, 0xd0, 0xb5, 0x02, 0xec, 0xb1, 0xcd, 0x5c, 0x47, 0x27,
  0xf1, 0xdd, 0xa7, 0xc3, 0xdd, 0x2c, 0x34, 0x0d, 0x4f, 0x0d, 0x71, 0x54,
  0xbc, 0xd3, 0x35, 0xeb, 0xa5, 0x0b, 0xc0, 0xdf, 0xe1, 0x08, 0x17, 0x4c,
  0xe7, 0x36, 0x3b, 0x1a, 0x2a, 0x0d, 0x6d, 0xc1, 0x19, 0xda, 0xe3, 0xca,
  0x00, 0xc7, 0x40, 0xf7, 0xf4, 0xd4, 0xfe, 0x08, 0xf9, 0xcc, 0xd5, 0x11,
  0x1e, 0xb9, 0x06, 0xc6, 0xd4, 0x7f, 0x31, 0xee, 0x3e, 0xfd, 0xee, 0x28,
  0xb5, 0x9f, 0xf4, 0x81, 0xd4, 0x60, 0x04, 0xde, 0xf1, 0x59, 0x2b, 0x26,
  0xc8, 0x07, 0x37, 0x15, 0x23, 0xef, 0x18, 0xfe, 0x1f, 0xe0, 0xed, 0xd6,
  0xe6, 0x13, 0xb1, 0x27, 0xfb, 0x1d, 0xce, 0x08, 0xfd, 0xac, 0xfc, 0x05,
  0x11, 0x15, 0xed, 0x18, 0xb2, 0x01, 0x12, 0xe0, 0x37, 0x8c, 0x1d, 0xfe,
  0xf5, 0xb2, 0x09, 0x81, 0xc5, 0x60, 0xee, 0x09, 0x1c, 0x17, 0x50, 0x28,
  0xf2, 0x30, 0x3d, 0x36, 0x38, 0xe6, 0xf4, 0xf1, 0x39, 0xf9, 0x25, 0xc4,
  0xdb, 0xe3, 0x88, 0xfc, 0x16, 0xe9, 0xbf, 0x37, 0xf8, 0xa8, 0xc1, 0xbf,
  0x08, 0x00, 0x10, 0xf9, 0xca, 0x1d, 0x2a, 0xcb, 0x20, 0x98, 0x26, 0x12,
  0x25, 0xc0, 0x2d, 0xdd, 0x4e, 0xaa, 0xd9, 0x46, 0x01, 0xb2, 0x81, 0xd1,
  0x3c, 0xc2, 0xf8, 0x28, 0x00, 0xea, 0x56, 0x52, 0xd0, 0x13, 0x4d, 0xf3,
  0xc1, 0xc6, 0x14, 0xa8, 0xfc, 0x20, 0x3f, 0xb7, 0x46, 0x4d, 0x30, 0x42,
  0x3d, 0xde, 0xd6, 0x2f, 0x1f, 0xf3, 0x2b, 0x49, 0xb6, 0x28, 0xbe, 0x56,
  0xc7, 0xf6, 0xe9, 0x0e, 0xcf, 0x94, 0xf7, 0x49, 0x03, 0xaa, 0x8b, 0x88,
  0x3e, 0xd5, 0x55, 0xae, 0xf3, 0xd1, 0xcc, 0x7f, 0xb3, 0x6a, 0xf8, 0x3b,
  0x41, 0x0a, 0x3c, 0x3b, 0x12, 0xe5, 0x7e, 0x0b, 0x66, 0xd2, 0xd8, 0xe2,
  0xdc, 0x7f, 0x13, 0x53, 0x5a, 0xcd, 0x16, 0x26, 0xc0, 0xd0, 0xc8, 0xf1,
  0xf9, 0xb1, 0x9d, 0x08, 0x8d, 0x1a, 0xc4, 0xb8, 0xa1, 0xfd, 0x6c, 0x3a,
  0x54, 0xa2, 0xde, 0x92, 0xc6, 0xc6, 0xe0, 0x4e, 0x64, 0x36, 0xc1, 0x86,
  0xf4, 0xa8, 0xb2, 0x87, 0x0e, 0x33, 0xb5, 0xfd, 0xa2, 0xcb, 0x5e, 0x8d,
  0xea, 0xad, 0xf2, 0xc0, 0x30, 0x0c, 0xf8, 0x6f, 0xb9, 0x81, 0x50, 0xd4,
  0x6d, 0x2d, 0x1e, 0x17, 0x33, 0xcc, 0xe0, 0x68, 0xf1, 0x09, 0xb7, 0x15,
  0x48, 0xc0, 0x81, 0x6f, 0xf6, 0xf2, 0x53, 0x2d, 0x08, 0x0e, 0x11, 0x00,
  0x02, 0x05, 0x9a, 0xa5, 0xd6, 0x5c, 0x2d, 0xc0, 0xe6, 0x2a, 0x53, 0x38,
  0x0a, 0x21, 0xfa, 0xc7, 0xeb, 0x2a, 0xe3, 0x01, 0x85, 0x36, 0x08, 0xf7,
  0x30, 0xb3, 0x5d, 0xbe, 0xb7, 0x39, 0xb4, 0xbc, 0xb9, 0xf7, 0x13, 0xda,
  0x81, 0x31, 0xef, 0xc2, 0xfb, 0x4d, 0xda, 0x0d, 0xcb, 0xa5, 0x33, 0xda,
  0x37, 0x1b, 0x5f, 0xfd, 0x29, 0x40, 0x2e, 0x0d, 0xc6, 0x49, 0xa2, 0x60,
  0xda, 0xef, 0x20, 0x1f, 0xe0, 0x1e, 0x09, 0x1e, 0x1a, 0xdb, 0xf8, 0x57,
  0xfb, 0xed, 0x5a, 0x59, 0xfd, 0x95, 0x14, 0xba, 0xb1, 0xaa, 0x25, 0x03,
  0xd8, 0x4c, 0xee, 0xa1, 0xa3, 0x2f, 0xeb, 0x40, 0xb6, 0xf4, 0xb5, 0x32,
  0x37, 0x04, 0x7f, 0x23, 0xed, 0xbc, 0xe7, 0x5b, 0xd1, 0x8c, 0xf8, 0xb5,
  0xcf, 0xbc, 0x23, 0xc5, 0x5d, 0xb6, 0x08, 0x3a, 0x72, 0x3b, 0x68, 0x50,
  0x0e, 0x4a, 0xc8, 0x6b, 0x09, 0x81, 0x13, 0xe8, 0x2a, 0xbf, 0xb8, 0x10,
  0x3b, 0x12, 0xfe, 0x21, 0xe1, 0xfc, 0x1c, 0xee, 0xcc, 0x29, 0xf6, 0x3b,
  0x3a, 0x1b, 0x5d, 0xdb, 0xd6, 0xef, 0x4b, 0xe9, 0x08, 0x41, 0x2a, 0xf6,
  0xd3, 0x11, 0x08, 0xe8, 0x38, 0x16, 0xb7, 0x39, 0xf2, 0x35, 0xdc, 0xe5,
  0x13, 0x34, 0xb2, 0x22, 0xc2, 0xee, 0x43, 0xca, 0x00, 0x7f, 0x79, 0xda,
  0xb7, 0x25, 0xdd, 0xea, 0x13, 0x4b, 0x1e, 0xd5, 0x1e, 0xe5, 0xd1, 0x0f,
  0x25, 0x2c, 0xd3, 0x27, 0xc6, 0x14, 0xde, 0x24, 0xaf, 0x1e, 0xf1, 0xf9,
  0x22, 0xd3, 0xe5, 0x14, 0xe9, 0x2b, 0xc9, 0xca, 0x11, 0xdc, 0x46, 0xcd,
  0xea, 0xfd, 0xff, 0xff, 0x04, 0x00, 0x00, 0x00, 0x80, 0x00, 0x00, 0x00,
  0xe3, 0x07, 0x00, 0x00, 0x74, 0x00, 0x00, 0x00, 0xaa, 0xfd, 0xff, 0xff,
  0x6b, 0x01, 0x00, 0x00, 0xc6, 0xff, 0xff, 0xff, 0x6c, 0x03, 0x00, 0x00,
  0xd8, 0x00, 0x00, 0x00, 0x14, 0xfd, 0xff, 0xff, 0xb7, 0xfd, 0xff, 0xff,
  0x37, 0xfc, 0xff, 0xff, 0x78, 0x03, 0x00, 0x00, 0x00, 0x00, 0x00, 0x00,
  0x00, 0x00, 0x00, 0x00, 0x10, 0xff, 0xff, 0xff, 0x52, 0xfe, 0xff, 0xff,
  0x00, 0x00, 0x00, 0x00, 0x93, 0x03, 0x00, 0x00, 0xef, 0x00, 0x00, 0x00,
  0xb4, 0x01, 0x00, 0x00, 0xb3, 0x02, 0x00, 0x00, 0x17, 0x03, 0x00, 0x00,
  0xdc, 0x04, 0x00, 0x00, 0x2f, 0x03, 0x00, 0x00, 0xe1, 0x03, 0x00, 0x00,
  0xa0, 0xfd, 0xff, 0xff, 0x67, 0xfa, 0xff, 0xff, 0x00, 0x00, 0x00, 0x00,
  0xd7, 0xfc, 0xff, 0xff, 0xc6, 0xff, 0xff, 0xff, 0xd3, 0x00, 0x00, 0x00,
  0x18, 0xfd, 0xff, 0xff, 0x7e, 0x05, 0x00, 0x00, 0x76, 0xfe, 0xff, 0xff,
  0x04, 0x00, 0x00, 0x00, 0xa0, 0x00, 0x00, 0x00, 0x09, 0xdc, 0x18, 0x25,
  0x81, 0xc1, 0x41, 0x1d, 0x23, 0xce, 0xdb, 0x02, 0x19, 0xf2, 0xf8, 0xf9,
  0x8f, 0xa9, 0x1e, 0xca, 0x39, 0xc7, 0xe3, 0xda, 0x24, 0xab, 0xf1, 0x37,
  0xb5, 0xde, 0x11, 0x2b, 0xdb, 0x2a, 0x0e, 0x13, 0x7f, 0x9d, 0xfe, 0x27,
  0xb5, 0x26, 0xc1, 0x0a, 0x11, 0xde, 0x23, 0xf7, 0x15, 0xe8, 0xf9, 0xc4,
  0x02, 0xb0, 0xcd, 0xd1, 0x50, 0x28, 0xe1, 0x1b, 0x0d, 0xf9, 0x0c, 0x90,
  0x9b, 0x2a, 0x11, 0xbb, 0xaa, 0xf2, 0xbe, 0x98, 0x33, 0x8b, 0xce, 0x0b,
  0x0d, 0xf2, 0xaa, 0xea, 0x2c, 0x4d, 0x81, 0x00, 0x82, 0xaf, 0xb9, 0xbc,
  0xac, 0x1c, 0x11, 0xe6, 0xd0, 0x2b, 0x10, 0x20, 0x1b, 0x12, 0x90, 0x02,
  0x14, 0x3a, 0xdf, 0x0d, 0xfe, 0x10, 0x4b, 0x11, 0xf6, 0x13, 0x08, 0x11,
  0x16, 0x01, 0x13, 0x2a, 0x1b, 0x1b, 0x42, 0x46, 0xdd, 0xcf, 0xf0, 0x81,
  0x11, 0xa0, 0x96, 0x02, 0x7f, 0xa1, 0x12, 0x07, 0xe5, 0xc0, 0x35, 0x2a,
  0xc3, 0x3f, 0xdd, 0xf0, 0x19, 0xeb, 0xb9, 0x00, 0xa2, 0xf3, 0x02, 0xdf,
  0x43, 0x1f, 0xe9, 0xd1, 0x21, 0xa2, 0x20, 0x18, 0x0b, 0x28, 0x0d, 0xf7,
  0x22, 0xff, 0xff, 0xff, 0x04, 0x00, 0x00, 0x00, 0x14, 0x00, 0x00, 0x00,
  0x93, 0xfe, 0xff, 0xff, 0x52, 0xfd, 0xff, 0xff, 0x57, 0x06, 0x00, 0x00,
  0x51, 0xfd, 0xff, 0xff, 0x9b, 0xfb, 0xff, 0xff, 0x42, 0xff, 0xff, 0xff,
  0x04, 0x00, 0x00, 0x00, 0x08, 0x00, 0x00, 0x00, 0x01, 0x00, 0x00, 0x00,
  0x02, 0x00, 0x00, 0x00, 0xcc, 0xda, 0xff, 0xff, 0xd0, 0xda, 0xff, 0xff,
  0x0f, 0x00, 0x00, 0x00, 0x4d, 0x4c, 0x49, 0x52, 0x20, 0x43, 0x6f, 0x6e,
  0x76, 0x65, 0x72, 0x74, 0x65, 0x64, 0x2e, 0x00, 0x01, 0x00, 0x00, 0x00,
  0x14, 0x00, 0x00, 0x00, 0x00, 0x00, 0x0e, 0x00, 0x18, 0x00, 0x14, 0x00,
  0x10, 0x00, 0x0c, 0x00, 0x08, 0x00, 0x04, 0x00, 0x0e, 0x00, 0x00, 0x00,
  0x14, 0x00, 0x00, 0x00, 0x1c, 0x00, 0x00, 0x00, 0xb4, 0x03, 0x00, 0x00,
  0xb8, 0x03, 0x00, 0x00, 0xbc, 0x03, 0x00, 0x00, 0x04, 0x00, 0x00, 0x00,
  0x6d, 0x61, 0x69, 0x6e, 0x00, 0x00, 0x00, 0x00, 0x0d, 0x00, 0x00, 0x00,
  0x50, 0x03, 0x00, 0x00, 0xec, 0x02, 0x00, 0x00, 0x88, 0x02, 0x00, 0x00,
  0x48, 0x02, 0x00, 0x00, 0x00, 0x02, 0x00, 0x00, 0xbc, 0x01, 0x00, 0x00,
  0x7c, 0x01, 0x00, 0x00, 0x34, 0x01, 0x00, 0x00, 0xf0, 0x00, 0x00, 0x00,
  0xbc, 0x00, 0x00, 0x00, 0x78, 0x00, 0x00, 0x00, 0x40, 0x00, 0x00, 0x00,
  0x04, 0x00, 0x00, 0x00, 0x52, 0xfd, 0xff, 0xff, 0x1c, 0x00, 0x00, 0x00,
  0x00, 0x00, 0x00, 0x09, 0x1c, 0x00, 0x00, 0x00, 0x20, 0x00, 0x00, 0x00,
  0x05, 0x00, 0x00, 0x00, 0x00, 0x00, 0x06, 0x00, 0x08, 0x00, 0x04, 0x00,
  0x06, 0x00, 0x00, 0x00, 0x00, 0x00, 0x80, 0x3f, 0x01, 0x00, 0x00, 0x00,
  0x1e, 0x00, 0x00, 0x00, 0x01, 0x00, 0x00, 0x00, 0x1d, 0x00, 0x00, 0x00,
  0x8a, 0xfd, 0xff, 0xff, 0x14, 0x00, 0x00, 0x00, 0x00, 0x00, 0x00, 0x08,
  0x10, 0x00, 0x00, 0x00, 0x14, 0x00, 0x00, 0x00, 0x04, 0x00, 0x00, 0x00,
  0xac, 0xdb, 0xff, 0xff, 0x01, 0x00, 0x00, 0x00, 0x1d, 0x00, 0x00, 0x00,
  0x03, 0x00, 0x00, 0x00, 0x1c, 0x00, 0x00, 0x00, 0x03, 0x00, 0x00, 0x00,
  0x02, 0x00, 0x00, 0x00, 0xbe, 0xfd, 0xff, 0xff, 0x1c, 0x00, 0x00, 0x00,
  0x00, 0x00, 0x00, 0x08, 0x1c, 0x00, 0x00, 0x00, 0x20, 0x00, 0x00, 0x00,
  0x04, 0x00, 0x00, 0x00, 0x00, 0x00, 0x06, 0x00, 0x08, 0x00, 0x07, 0x00,
  0x06, 0x00, 0x00, 0x00, 0x00, 0x00, 0x00, 0x01, 0x01, 0x00, 0x00, 0x00,
  0x1c, 0x00, 0x00, 0x00, 0x03, 0x00, 0x00, 0x00, 0x1b, 0x00, 0x00, 0x00,
  0x05, 0x00, 0x00, 0x00, 0x04, 0x00, 0x00, 0x00, 0xfe, 0xfd, 0xff, 0xff,
  0x14, 0x00, 0x00, 0x00, 0x00, 0x00, 0x00, 0x1b, 0x10, 0x00, 0x00, 0x00,
  0x14, 0x00, 0x00, 0x00, 0x03, 0x00, 0x00, 0x00, 0x20, 0xdc, 0xff, 0xff,
  0x01, 0x00, 0x00, 0x00, 0x1b, 0x00, 0x00, 0x00, 0x02, 0x00, 0x00, 0x00,
  0x1a, 0x00, 0x00, 0x00, 0x01, 0x00, 0x00, 0x00, 0x2e, 0xfe, 0xff, 0xff,
  0x14, 0x00, 0x00, 0x00, 0x00, 0x00, 0x00, 0x05, 0x24, 0x00, 0x00, 0x00,
  0x28, 0x00, 0x00, 0x00, 0x02, 0x00, 0x00, 0x00, 0x7e, 0xfe, 0xff, 0xff,
  0x02, 0x00, 0x00, 0x00, 0x02, 0x00, 0x00, 0x00, 0x02, 0x00, 0x00, 0x00,
  0x02, 0x00, 0x00, 0x00, 0x00, 0x00, 0x00, 0x01, 0x01, 0x00, 0x00, 0x00,
  0x1a, 0x00, 0x00, 0x00, 0x01, 0x00, 0x00, 0x00, 0x19, 0x00, 0x00, 0x00,
  0x6e, 0xfe, 0xff, 0xff, 0x14, 0x00, 0x00, 0x00, 0x00, 0x00, 0x00, 0x01,
  0x20, 0x00, 0x00, 0x00, 0x24, 0x00, 0x00, 0x00, 0x01, 0x00, 0x00, 0x00,
  0x60, 0xfe, 0xff, 0xff, 0x00, 0x00, 0x00, 0x01, 0x01, 0x00, 0x00, 0x00,
  0x01, 0x00, 0x00, 0x00, 0x00, 0x00, 0x00, 0x01, 0x01, 0x00, 0x00, 0x00,
  0x19, 0x00, 0x00, 0x00, 0x03, 0x00, 0x00, 0x00, 0x18, 0x00, 0x00, 0x00,
  0x07, 0x00, 0x00, 0x00, 0x06, 0x00, 0x00, 0x00, 0x52, 0xfe, 0xff, 0xff,
  0x10, 0x00, 0x00, 0x00, 0x00, 0x00, 0x00, 0x02, 0x18, 0x00, 0x00, 0x00,
  0x1c, 0x00, 0x00, 0x00, 0x44, 0xfe, 0xff, 0xff, 0x01, 0x00, 0x00, 0x00,
  0x01, 0x00, 0x00, 0x00, 0x01, 0x00, 0x00, 0x00, 0x01, 0x00, 0x00, 0x00,
  0x18, 0x00, 0x00, 0x00, 0x03, 0x00, 0x00, 0x00, 0x17, 0x00, 0x00, 0x00,
  0x09, 0x00, 0x00, 0x00, 0x08, 0x00, 0x00, 0x00, 0xee, 0xfe, 0xff, 0xff,
  0x14, 0x00, 0x00, 0x00, 0x00, 0x00, 0x00, 0x05, 0x24, 0x00, 0x00, 0x00,
  0x28, 0x00, 0x00, 0x00, 0x02, 0x00, 0x00, 0x00, 0x3e, 0xff, 0xff, 0xff,
  0x02, 0x00, 0x00, 0x00, 0x02, 0x00, 0x00, 0x00, 0x02, 0x00, 0x00, 0x00,
  0x02, 0x00, 0x00, 0x00, 0x00, 0x00, 0x00, 0x01, 0x01, 0x00, 0x00, 0x00,
  0x17, 0x00, 0x00, 0x00, 0x01, 0x00, 0x00, 0x00, 0x16, 0x00, 0x00, 0x00,
  0x2e, 0xff, 0xff, 0xff, 0x14, 0x00, 0x00, 0x00, 0x00, 0x00, 0x00, 0x01,
  0x20, 0x00, 0x00, 0x00, 0x24, 0x00, 0x00, 0x00, 0x01, 0x00, 0x00, 0x00,
  0x20, 0xff, 0xff, 0xff, 0x00, 0x00, 0x00, 0x01, 0x01, 0x00, 0x00, 0x00,
  0x01, 0x00, 0x00, 0x00, 0x00, 0x00, 0x00, 0x01, 0x01, 0x00, 0x00, 0x00,
  0x16, 0x00, 0x00, 0x00, 0x03, 0x00, 0x00, 0x00, 0x15, 0x00, 0x00, 0x00,
  0x0b, 0x00, 0x00, 0x00, 0x0a, 0x00, 0x00, 0x00, 0x12, 0xff, 0xff, 0xff,
  0x10, 0x00, 0x00, 0x00, 0x00, 0x00, 0x00, 0x02, 0x18, 0x00, 0x00, 0x00,
  0x1c, 0x00, 0x00, 0x00, 0x04, 0xff, 0xff, 0xff, 0x01, 0x00, 0x00, 0x00,
  0x01, 0x00, 0x00, 0x00, 0x01, 0x00, 0x00, 0x00, 0x01, 0x00, 0x00, 0x00,
  0x15, 0x00, 0x00, 0x00, 0x03, 0x00, 0x00, 0x00, 0x14, 0x00, 0x00, 0x00,
  0x0d, 0x00, 0x00, 0x00, 0x0c, 0x00, 0x00, 0x00, 0xae, 0xff, 0xff, 0xff,
  0x24, 0x00, 0x00, 0x00, 0x00, 0x00, 0x00, 0x05, 0x34, 0x00, 0x00, 0x00,
  0x38, 0x00, 0x00, 0x00, 0x02, 0x00, 0x00, 0x00, 0x00, 0x00, 0x0e, 0x00,
  0x18, 0x00, 0x17, 0x00, 0x10, 0x00, 0x0c, 0x00, 0x08, 0x00, 0x04, 0x00,
  0x0e, 0x00, 0x00, 0x00, 0x02, 0x00, 0x00, 0x00, 0x02, 0x00, 0x00, 0x00,
  0x02, 0x00, 0x00, 0x00, 0x02, 0x00, 0x00, 0x00, 0x00, 0x00, 0x00, 0x01,
  0x01, 0x00, 0x00, 0x00, 0x14, 0x00, 0x00, 0x00, 0x01, 0x00, 0x00, 0x00,
  0x13, 0x00, 0x00, 0x00, 0x00, 0x00, 0x0e, 0x00, 0x18, 0x00, 0x14, 0x00,
  0x10, 0x00, 0x0c, 0x00, 0x0b, 0x00, 0x04, 0x00, 0x0e, 0x00, 0x00, 0x00,
  0x20, 0x00, 0x00, 0x00, 0x00, 0x00, 0x00, 0x01, 0x2c, 0x00, 0x00, 0x00,
  0x30, 0x00, 0x00, 0x00, 0x01, 0x00, 0x00, 0x00, 0x0c, 0x00, 0x14, 0x00,
  0x13, 0x00, 0x0c, 0x00, 0x08, 0x00, 0x07, 0x00, 0x0c, 0x00, 0x00, 0x00,
  0x00, 0x00, 0x00, 0x01, 0x01, 0x00, 0x00, 0x00, 0x01, 0x00, 0x00, 0x00,
  0x00, 0x00, 0x00, 0x01, 0x01, 0x00, 0x00, 0x00, 0x13, 0x00, 0x00, 0x00,
  0x03, 0x00, 0x00, 0x00, 0x12, 0x00, 0x00, 0x00, 0x0f, 0x00, 0x00, 0x00,
  0x0e, 0x00, 0x00, 0x00, 0x00, 0x00, 0x0e, 0x00, 0x14, 0x00, 0x00, 0x00,
  0x10, 0x00, 0x0c, 0x00, 0x0b, 0x00, 0x04, 0x00, 0x0e, 0x00, 0x00, 0x00,
  0x1c, 0x00, 0x00, 0x00, 0x00, 0x00, 0x00, 0x02, 0x24, 0x00, 0x00, 0x00,
  0x28, 0x00, 0x00, 0x00, 0x0c, 0x00, 0x10, 0x00, 0x00, 0x00, 0x0c, 0x00,
  0x08, 0x00, 0x04, 0x00, 0x0c, 0x00, 0x00, 0x00, 0x01, 0x00, 0x00, 0x00,
  0x01, 0x00, 0x00, 0x00, 0x01, 0x00, 0x00, 0x00, 0x01, 0x00, 0x00, 0x00,
  0x12, 0x00, 0x00, 0x00, 0x03, 0x00, 0x00, 0x00, 0x00, 0x00, 0x00, 0x00,
  0x11, 0x00, 0x00, 0x00, 0x10, 0x00, 0x00, 0x00, 0x01, 0x00, 0x00, 0x00,
  0x1e, 0x00, 0x00, 0x00, 0x01, 0x00, 0x00, 0x00, 0x00, 0x00, 0x00, 0x00,
  0x1f, 0x00, 0x00, 0x00, 0x68, 0x21, 0x00, 0x00, 0x0c, 0x21, 0x00, 0x00,
  0x64, 0x20, 0x00, 0x00, 0xd0, 0x1f, 0x00, 0x00, 0xfc, 0x1d, 0x00, 0x00,
  0x20, 0x1c, 0x00, 0x00, 0x8c, 0x19, 0x00, 0x00, 0xe8, 0x16, 0x00, 0x00,
  0x74, 0x15, 0x00, 0x00, 0xd8, 0x13, 0x00, 0x00, 0x64, 0x12, 0x00, 0x00,
  0xe0, 0x10, 0x00, 0x00, 0xfc, 0x0f, 0x00, 0x00, 0x04, 0x0f, 0x00, 0x00,
  0x1c, 0x0e, 0x00, 0x00, 0x28, 0x0d, 0x00, 0x00, 0xc4, 0x0c, 0x00, 0x00,
  0x54, 0x0c, 0x00, 0x00, 0xa4, 0x0b, 0x00, 0x00, 0xb0, 0x09, 0x00, 0x00,
  0x14, 0x09, 0x00, 0x00, 0x60, 0x08, 0x00, 0x00, 0x64, 0x06, 0x00, 0x00,
  0xc8, 0x05, 0x00, 0x00, 0x14, 0x05, 0x00, 0x00, 0x18, 0x03, 0x00, 0x00,
  0x7c, 0x02, 0x00, 0x00, 0xe8, 0x01, 0x00, 0x00, 0x24, 0x01, 0x00, 0x00,
  0x80, 0x00, 0x00, 0x00, 0x04, 0x00, 0x00, 0x00, 0x2a, 0xdf, 0xff, 0xff,
  0x00, 0x00, 0x00, 0x01, 0x18, 0x00, 0x00, 0x00, 0x20, 0x00, 0x00, 0x00,
  0x3c, 0x00, 0x00, 0x00, 0x1f, 0x00, 0x00, 0x00, 0x00, 0x00, 0x00, 0x09,
  0x50, 0x00, 0x00, 0x00, 0x02, 0x00, 0x00, 0x00, 0xff, 0xff, 0xff, 0xff,
  0x05, 0x00, 0x00, 0x00, 0x0c, 0xdf, 0xff, 0xff, 0x08, 0x00, 0x00, 0x00,
  0x10, 0x00, 0x00, 0x00, 0x01, 0x00, 0x00, 0x00, 0x80, 0xff, 0xff, 0xff,
  0xff, 0xff, 0xff, 0xff, 0x01, 0x00, 0x00, 0x00, 0x00, 0x00, 0x80, 0x3b,
  0x1b, 0x00, 0x00, 0x00, 0x53, 0x74, 0x61, 0x74, 0x65, 0x66, 0x75, 0x6c,
  0x50, 0x61, 0x72, 0x74, 0x69, 0x74, 0x69, 0x6f, 0x6e, 0x65, 0x64, 0x43,
  0x61, 0x6c, 0x6c, 0x5f, 0x31, 0x3a, 0x30, 0x00, 0x02, 0x00, 0x00, 0x00,
  0x01, 0x00, 0x00, 0x00, 0x05, 0x00, 0x00, 0x00, 0xa2, 0xdf, 0xff, 0xff,
  0x00, 0x00, 0x00, 0x01, 0x18, 0x00, 0x00, 0x00, 0x20, 0x00, 0x00, 0x00,
  0x3c, 0x00, 0x00, 0x00, 0x1e, 0x00, 0x00, 0x00, 0x00, 0x00, 0x00, 0x09,
  0x78, 0x00, 0x00, 0x00, 0x02, 0x00, 0x00, 0x00, 0xff, 0xff, 0xff, 0xff,
  0x05, 0x00, 0x00, 0x00, 0x84, 0xdf, 0xff, 0xff, 0x08, 0x00, 0x00, 0x00,
  0x10, 0x00, 0x00, 0x00, 0x01, 0x00, 0x00, 0x00, 0x22, 0x00, 0x00, 0x00,
  0x00, 0x00, 0x00, 0x00, 0x01, 0x00, 0x00, 0x00, 0x6c, 0x49, 0x06, 0x3e,
  0x42, 0x00, 0x00, 0x00, 0x66, 0x75, 0x6e, 0x63, 0x74, 0x69, 0x6f, 0x6e,
  0x61, 0x6c, 0x5f, 0x37, 0x5f, 0x31, 0x2f, 0x64, 0x65, 0x6e, 0x73, 0x65,
  0x5f, 0x31, 0x31, 0x5f, 0x31, 0x2f, 0x4d, 0x61, 0x74, 0x4d, 0x75, 0x6c,
  0x3b, 0x66, 0x75, 0x6e, 0x63, 0x74, 0x69, 0x6f, 0x6e, 0x61, 0x6c, 0x5f,
  0x37, 0x5f, 0x31, 0x2f, 0x64, 0x65, 0x6e, 0x73, 0x65, 0x5f, 0x31, 0x31,
  0x5f, 0x31, 0x2f, 0x42, 0x69, 0x61, 0x73, 0x41, 0x64, 0x64, 0x00, 0x00,
  0x02, 0x00, 0x00, 0x00, 0x01, 0x00, 0x00, 0x00, 0x05, 0x00, 0x00, 0x00,
  0x42, 0xe0, 0xff, 0xff, 0x00, 0x00, 0x00, 0x01, 0x18, 0x00, 0x00, 0x00,
  0x20, 0x00, 0x00, 0x00, 0x3c, 0x00, 0x00, 0x00, 0x1d, 0x00, 0x00, 0x00,
  0x00, 0x00, 0x00, 0x09, 0x98, 0x00, 0x00, 0x00, 0x02, 0x00, 0x00, 0x00,
  0xff, 0xff, 0xff, 0xff, 0x20, 0x00, 0x00, 0x00, 0x24, 0xe0, 0xff, 0xff,
  0x08, 0x00, 0x00, 0x00, 0x10, 0x00, 0x00, 0x00, 0x01, 0x00, 0x00, 0x00,
  0x80, 0xff, 0xff, 0xff, 0xff, 0xff, 0xff, 0xff, 0x01, 0x00, 0x00, 0x00,
  0x7c, 0x50, 0x98, 0x3c, 0x61, 0x00, 0x00, 0x00, 0x66, 0x75, 0x6e, 0x63,
  0x74, 0x69, 0x6f, 0x6e, 0x61, 0x6c, 0x5f, 0x37, 0x5f, 0x31, 0x2f, 0x64,
  0x65, 0x6e, 0x73, 0x65, 0x5f, 0x31, 0x30, 0x5f, 0x31, 0x2f, 0x4d, 0x61,
  0x74, 0x4d, 0x75, 0x6c, 0x3b, 0x66, 0x75, 0x6e, 0x63, 0x74, 0x69, 0x6f,
  0x6e, 0x61, 0x6c, 0x5f, 0x37, 0x5f, 0x31, 0x2f, 0x64, 0x65, 0x6e, 0x73,
  0x65, 0x5f, 0x31, 0x30, 0x5f, 0x31, 0x2f, 0x52, 0x65, 0x6c, 0x75, 0x3b,
  0x66, 0x75, 0x6e, 0x63, 0x74, 0x69, 0x6f, 0x6e, 0x61, 0x6c, 0x5f, 0x37,
  0x5f, 0x31, 0x2f, 0x64, 0x65, 0x6e, 0x73, 0x65, 0x5f, 0x31, 0x30, 0x5f,
  0x31, 0x2f, 0x42, 0x69, 0x61, 0x73, 0x41, 0x64, 0x64, 0x00, 0x00, 0x00,
  0x02, 0x00, 0x00, 0x00, 0x01, 0x00, 0x00, 0x00, 0x20, 0x00, 0x00, 0x00,
  0x02, 0xe1, 0xff, 0xff, 0x00, 0x00, 0x00, 0x01, 0x18, 0x00, 0x00, 0x00,
  0x20, 0x00, 0x00, 0x00, 0x3c, 0x00, 0x00, 0x00, 0x1c, 0x00, 0x00, 0x00,
  0x00, 0x00, 0x00, 0x09, 0x68, 0x00, 0x00, 0x00, 0x02, 0x00, 0x00, 0x00,
  0xff, 0xff, 0xff, 0xff, 0x30, 0x00, 0x00, 0x00, 0xe4, 0xe0, 0xff, 0xff,
  0x08, 0x00, 0x00, 0x00, 0x10, 0x00, 0x00, 0x00, 0x01, 0x00, 0x00, 0x00,
  0x80, 0xff, 0xff, 0xff, 0xff, 0xff, 0xff, 0xff, 0x01, 0x00, 0x00, 0x00,
  0x77, 0x3f, 0x9d, 0x3c, 0x30, 0x00, 0x00, 0x00, 0x66, 0x75, 0x6e, 0x63,
  0x74, 0x69, 0x6f, 0x6e, 0x61, 0x6c, 0x5f, 0x37, 0x5f, 0x31, 0x2f, 0x67,
  0x6c, 0x6f, 0x62, 0x61, 0x6c, 0x5f, 0x61, 0x76, 0x65, 0x72, 0x61, 0x67,
  0x65, 0x5f, 0x70, 0x6f, 0x6f, 0x6c, 0x69, 0x6e, 0x67, 0x32, 0x64, 0x5f,
  0x33, 0x5f, 0x31, 0x2f, 0x4d, 0x65, 0x61, 0x6e, 0x00, 0x00, 0x00, 0x00,
  0x02, 0x00, 0x00, 0x00, 0x01, 0x00, 0x00, 0x00, 0x30, 0x00, 0x00, 0x00,
  0x92, 0xe1, 0xff, 0xff, 0x00, 0x00, 0x00, 0x01, 0x18, 0x00, 0x00, 0x00,
  0x28, 0x00, 0x00, 0x00, 0x44, 0x00, 0x00, 0x00, 0x1b, 0x00, 0x00, 0x00,
  0x00, 0x00, 0x00, 0x09, 0x68, 0x00, 0x00, 0x00, 0x04, 0x00, 0x00, 0x00,
  0xff, 0xff, 0xff, 0xff, 0x08, 0x00, 0x00, 0x00, 0x05, 0x00, 0x00, 0x00,
  0x30, 0x00, 0x00, 0x00, 0x7c, 0xe1, 0xff, 0xff, 0x08, 0x00, 0x00, 0x00,
  0x10, 0x00, 0x00, 0x00, 0x01, 0x00, 0x00, 0x00, 0x80, 0xff, 0xff, 0xff,
  0xff, 0xff, 0xff, 0xff, 0x01, 0x00, 0x00, 0x00, 0x1e, 0xdf, 0x26, 0x3d,
  0x2b, 0x00, 0x00, 0x00, 0x66, 0x75, 0x6e, 0x63, 0x74, 0x69, 0x6f, 0x6e,
  0x61, 0x6c, 0x5f, 0x37, 0x5f, 0x31, 0x2f, 0x6d, 0x61, 0x78, 0x5f, 0x70,
  0x6f, 0x6f, 0x6c, 0x69, 0x6e, 0x67, 0x32, 0x64, 0x5f, 0x31, 0x35, 0x5f,
  0x31, 0x2f, 0x4d, 0x61, 0x78, 0x50, 0x6f, 0x6f, 0x6c, 0x32, 0x64, 0x00,
  0x04, 0x00, 0x00, 0x00, 0x01, 0x00, 0x00, 0x00, 0x08, 0x00, 0x00, 0x00,
  0x05, 0x00, 0x00, 0x00, 0x30, 0x00, 0x00, 0x00, 0x2a, 0xe2, 0xff, 0xff,
  0x00, 0x00, 0x00, 0x01, 0x18, 0x00, 0x00, 0x00, 0x28, 0x00, 0x00, 0x00,
  0x44, 0x00, 0x00, 0x00, 0x1a, 0x00, 0x00, 0x00, 0x00, 0x00, 0x00, 0x09,
  0xc8, 0x01, 0x00, 0x00, 0x04, 0x00, 0x00, 0x00, 0xff, 0xff, 0xff, 0xff,
  0x10, 0x00, 0x00, 0x00, 0x0a, 0x00, 0x00, 0x00, 0x30, 0x00, 0x00, 0x00,
  0x14, 0xe2, 0xff, 0xff, 0x08, 0x00, 0x00, 0x00, 0x10, 0x00, 0x00, 0x00,
  0x01, 0x00, 0x00, 0x00, 0x80, 0xff, 0xff, 0xff, 0xff, 0xff, 0xff, 0xff,
  0x01, 0x00, 0x00, 0x00, 0x1e, 0xdf, 0x26, 0x3d, 0x8a, 0x01, 0x00, 0x00,
  0x66, 0x75, 0x6e, 0x63, 0x74, 0x69, 0x6f, 0x6e, 0x61, 0x6c, 0x5f, 0x37,
  0x5f, 0x31, 0x2f, 0x72, 0x65, 0x5f, 0x6c, 0x75, 0x5f, 0x31, 0x31, 0x5f,
  0x31, 0x2f, 0x52, 0x65, 0x6c, 0x75, 0x3b, 0x66, 0x75, 0x6e, 0x63, 0x74,
  0x69, 0x6f, 0x6e, 0x61, 0x6c, 0x5f, 0x37, 0x5f, 0x31, 0x2f, 0x62, 0x61,
  0x74, 0x63, 0x68, 0x5f, 0x6e, 0x6f, 0x72, 0x6d, 0x61, 0x6c, 0x69, 0x7a,
  0x61, 0x74, 0x69, 0x6f, 0x6e, 0x5f, 0x31, 0x31, 0x5f, 0x31, 0x2f, 0x62,
  0x61, 0x74, 0x63, 0x68, 0x6e, 0x6f, 0x72, 0x6d, 0x2f, 0x61, 0x64, 0x64,
  0x5f, 0x31, 0x3b, 0x66, 0x75, 0x6e, 0x63, 0x74, 0x69, 0x6f, 0x6e, 0x61,
  0x6c, 0x5f, 0x37, 0x5f, 0x31, 0x2f, 0x62, 0x61, 0x74, 0x63, 0x68, 0x5f,
  0x6e, 0x6f, 0x72, 0x6d, 0x61, 0x6c, 0x69, 0x7a, 0x61, 0x74, 0x69, 0x6f,
  0x6e, 0x5f, 0x31, 0x31, 0x5f, 0x31, 0x2f, 0x62, 0x61, 0x74, 0x63, 0x68,
  0x6e, 0x6f, 0x72, 0x6d, 0x2f, 0x6d, 0x75, 0x6c, 0x5f, 0x31, 0x3b, 0x66,
  0x75, 0x6e, 0x63, 0x74, 0x69, 0x6f, 0x6e, 0x61, 0x6c, 0x5f, 0x37, 0x5f,
  0x31, 0x2f, 0x73, 0x65, 0x70, 0x61, 0x72, 0x61, 0x62, 0x6c, 0x65, 0x5f,
  0x63, 0x6f, 0x6e, 0x76, 0x32, 0x64, 0x5f, 0x31, 0x31, 0x5f, 0x31, 0x2f,
  0x53, 0x71, 0x75, 0x65, 0x65, 0x7a, 0x65, 0x3b, 0x66, 0x75, 0x6e, 0x63,
  0x74, 0x69, 0x6f, 0x6e, 0x61, 0x6c, 0x5f, 0x37, 0x5f, 0x31, 0x2f, 0x73,
  0x65, 0x70, 0x61, 0x72, 0x61, 0x62, 0x6c, 0x65, 0x5f, 0x63, 0x6f, 0x6e,
  0x76, 0x32, 0x64, 0x5f, 0x31, 0x31, 0x5f, 0x31, 0x2f, 0x42, 0x69, 0x61,
  0x73, 0x41, 0x64, 0x64, 0x3b, 0x66, 0x75, 0x6e, 0x63, 0x74, 0x69, 0x6f,
  0x6e, 0x61, 0x6c, 0x5f, 0x37, 0x5f, 0x31, 0x2f, 0x62, 0x61, 0x74, 0x63,
  0x68, 0x5f, 0x6e, 0x6f, 0x72, 0x6d, 0x61, 0x6c, 0x69, 0x7a, 0x61, 0x74,
  0x69, 0x6f, 0x6e, 0x5f, 0x31, 0x31, 0x5f, 0x31, 0x2f, 0x62, 0x61, 0x74,
  0x63, 0x68, 0x6e, 0x6f, 0x72, 0x6d, 0x2f, 0x6d, 0x75, 0x6c, 0x3b, 0x66,
  0x75, 0x6e, 0x63, 0x74, 0x69, 0x6f, 0x6e, 0x61, 0x6c, 0x5f, 0x37, 0x5f,
  0x31, 0x2f, 0x73, 0x65, 0x70, 0x61, 0x72, 0x61, 0x62, 0x6c, 0x65, 0x5f,
  0x63, 0x6f, 0x6e, 0x76, 0x32, 0x64, 0x5f, 0x31, 0x31, 0x5f, 0x31, 0x2f,
  0x73, 0x65, 0x70, 0x61, 0x72, 0x61, 0x62, 0x6c, 0x65, 0x5f, 0x63, 0x6f,
  0x6e, 0x76, 0x32, 0x64, 0x3b, 0x66, 0x75, 0x6e, 0x63, 0x74, 0x69, 0x6f,
  0x6e, 0x61, 0x6c, 0x5f, 0x37, 0x5f, 0x31, 0x2f, 0x62, 0x61, 0x74, 0x63,
  0x68, 0x5f, 0x6e, 0x6f, 0x72, 0x6d, 0x61, 0x6c, 0x69, 0x7a, 0x61, 0x74,
  0x69, 0x6f, 0x6e, 0x5f, 0x31, 0x31, 0x5f, 0x31, 0x2f, 0x62, 0x61, 0x74,
  0x63, 0x68, 0x6e, 0x6f, 0x72, 0x6d, 0x2f, 0x73, 0x75, 0x62, 0x00, 0x00,
  0x04, 0x00, 0x00, 0x00, 0x01, 0x00, 0x00, 0x00, 0x10, 0x00, 0x00, 0x00,
  0x0a, 0x00, 0x00, 0x00, 0x30, 0x00, 0x00, 0x00, 0x22, 0xe4, 0xff, 0xff,
  0x00, 0x00, 0x00, 0x01, 0x18, 0x00, 0x00, 0x00, 0x28, 0x00, 0x00, 0x00,
  0x48, 0x00, 0x00, 0x00, 0x19, 0x00, 0x00, 0x00, 0x00, 0x00, 0x00, 0x09,
  0x80, 0x00, 0x00, 0x00, 0x04, 0x00, 0x00, 0x00, 0xff, 0xff, 0xff, 0xff,
  0x10, 0x00, 0x00, 0x00, 0x0a, 0x00, 0x00, 0x00, 0x18, 0x00, 0x00, 0x00,
  0x0c, 0xe4, 0xff, 0xff, 0x08, 0x00, 0x00, 0x00, 0x14, 0x00, 0x00, 0x00,
  0x01, 0x00, 0x00, 0x00, 0x11, 0x00, 0x00, 0x00, 0x00, 0x00, 0x00, 0x00,
  0x00, 0x00, 0x00, 0x00, 0x01, 0x00, 0x00, 0x00, 0xee, 0x03, 0x28, 0x3d,
  0x3f, 0x00, 0x00, 0x00, 0x66, 0x75, 0x6e, 0x63, 0x74, 0x69, 0x6f, 0x6e,
  0x61, 0x6c, 0x5f, 0x37, 0x5f, 0x31, 0x2f, 0x73, 0x65, 0x70, 0x61, 0x72,
  0x61, 0x62, 0x6c, 0x65, 0x5f, 0x63, 0x6f, 0x6e, 0x76, 0x32, 0x64, 0x5f,
  0x31, 0x31, 0x5f, 0x31, 0x2f, 0x73, 0x65, 0x70, 0x61, 0x72, 0x61, 0x62,
  0x6c, 0x65, 0x5f, 0x63, 0x6f, 0x6e, 0x76, 0x32, 0x64, 0x2f, 0x64, 0x65,
  0x70, 0x74, 0x68, 0x77, 0x69, 0x73, 0x65, 0x00, 0x04, 0x00, 0x00, 0x00,
  0x01, 0x00, 0x00, 0x00, 0x10, 0x00, 0x00, 0x00, 0x0a, 0x00, 0x00, 0x00,
  0x18, 0x00, 0x00, 0x00, 0xd2, 0xe4, 0xff, 0xff, 0x00, 0x00, 0x00, 0x01,
  0x18, 0x00, 0x00, 0x00, 0x28, 0x00, 0x00, 0x00, 0x44, 0x00, 0x00, 0x00,
  0x18, 0x00, 0x00, 0x00, 0x00, 0x00, 0x00, 0x09, 0x68, 0x00, 0x00, 0x00,
  0x04, 0x00, 0x00, 0x00, 0xff, 0xff, 0xff, 0xff, 0x10, 0x00, 0x00, 0x00,
  0x0a, 0x00, 0x00, 0x00, 0x18, 0x00, 0x00, 0x00, 0xbc, 0xe4, 0xff, 0xff,
  0x08, 0x00, 0x00, 0x00, 0x10, 0x00, 0x00, 0x00, 0x01, 0x00, 0x00, 0x00,
  0x80, 0xff, 0xff, 0xff, 0xff, 0xff, 0xff, 0xff, 0x01, 0x00, 0x00, 0x00,
  0x2d, 0x0d, 0x0b, 0x3d, 0x2b, 0x00, 0x00, 0x00, 0x66, 0x75, 0x6e, 0x63,
  0x74, 0x69, 0x6f, 0x6e, 0x61, 0x6c, 0x5f, 0x37, 0x5f, 0x31, 0x2f, 0x6d,
  0x61, 0x78, 0x5f, 0x70, 0x6f, 0x6f, 0x6c, 0x69, 0x6e, 0x67, 0x32, 0x64,
  0x5f, 0x31, 0x34, 0x5f, 0x31, 0x2f, 0x4d, 0x61, 0x78, 0x50, 0x6f, 0x6f,
  0x6c, 0x32, 0x64, 0x00, 0x04, 0x00, 0x00, 0x00, 0x01, 0x00, 0x00, 0x00,
  0x10, 0x00, 0x00, 0x00, 0x0a, 0x00, 0x00, 0x00, 0x18, 0x00, 0x00, 0x00,
  0x6a, 0xe5, 0xff, 0xff, 0x00, 0x00, 0x00, 0x01, 0x18, 0x00, 0x00, 0x00,
  0x28, 0x00, 0x00, 0x00, 0x44, 0x00, 0x00, 0x00, 0x17, 0x00, 0x00, 0x00,
  0x00, 0x00, 0x00, 0x09, 0xc8, 0x01, 0x00, 0x00, 0x04, 0x00, 0x00, 0x00,
  0xff, 0xff, 0xff, 0xff, 0x21, 0x00, 0x00, 0x00, 0x14, 0x00, 0x00, 0x00,
  0x18, 0x00, 0x00, 0x00, 0x54, 0xe5, 0xff, 0xff, 0x08, 0x00, 0x00, 0x00,
  0x10, 0x00, 0x00, 0x00, 0x01, 0x00, 0x00, 0x00, 0x80, 0xff, 0xff, 0xff,
  0xff, 0xff, 0xff, 0xff, 0x01, 0x00, 0x00, 0x00, 0x2d, 0x0d, 0x0b, 0x3d,
  0x8a, 0x01, 0x00, 0x00, 0x66, 0x75, 0x6e, 0x63, 0x74, 0x69, 0x6f, 0x6e,
  0x61, 0x6c, 0x5f, 0x37, 0x5f, 0x31, 0x2f, 0x72, 0x65, 0x5f, 0x6c, 0x75,
  0x5f, 0x31, 0x30, 0x5f, 0x31, 0x2f, 0x52, 0x65, 0x6c, 0x75, 0x3b, 0x66,
  0x75, 0x6e, 0x63, 0x74, 0x69, 0x6f, 0x6e, 0x61, 0x6c, 0x5f, 0x37, 0x5f,
  0x31, 0x2f, 0x62, 0x61, 0x74, 0x63, 0x68, 0x5f, 0x6e, 0x6f, 0x72, 0x6d,
  0x61, 0x6c, 0x69, 0x7a, 0x61, 0x74, 0x69, 0x6f, 0x6e, 0x5f, 0x31, 0x30,
  0x5f, 0x31, 0x2f, 0x62, 0x61, 0x74, 0x63, 0x68, 0x6e, 0x6f, 0x72, 0x6d,
  0x2f, 0x61, 0x64, 0x64, 0x5f, 0x31, 0x3b, 0x66, 0x75, 0x6e, 0x63, 0x74,
  0x69, 0x6f, 0x6e, 0x61, 0x6c, 0x5f, 0x37, 0x5f, 0x31, 0x2f, 0x62, 0x61,
  0x74, 0x63, 0x68, 0x5f, 0x6e, 0x6f, 0x72, 0x6d, 0x61, 0x6c, 0x69, 0x7a,
  0x61, 0x74, 0x69, 0x6f, 0x6e, 0x5f, 0x31, 0x30, 0x5f, 0x31, 0x2f, 0x62,
  0x61, 0x74, 0x63, 0x68, 0x6e, 0x6f, 0x72, 0x6d, 0x2f, 0x6d, 0x75, 0x6c,
  0x5f, 0x31, 0x3b, 0x66, 0x75, 0x6e, 0x63, 0x74, 0x69, 0x6f, 0x6e, 0x61,
  0x6c, 0x5f, 0x37, 0x5f, 0x31, 0x2f, 0x73, 0x65, 0x70, 0x61, 0x72, 0x61,
  0x62, 0x6c, 0x65, 0x5f, 0x63, 0x6f, 0x6e, 0x76, 0x32, 0x64, 0x5f, 0x31,
  0x30, 0x5f, 0x31, 0x2f, 0x53, 0x71, 0x75, 0x65, 0x65, 0x7a, 0x65, 0x3b,
  0x66, 0x75, 0x6e, 0x63, 0x74, 0x69, 0x6f, 0x6e, 0x61, 0x6c, 0x5f, 0x37,
  0x5f, 0x31, 0x2f, 0x73, 0x65, 0x70, 0x61, 0x72, 0x61, 0x62, 0x6c, 0x65,
  0x5f, 0x63, 0x6f, 0x6e, 0x76, 0x32, 0x64, 0x5f, 0x31, 0x30, 0x5f, 0x31,
  0x2f, 0x42, 0x69, 0x61, 0x73, 0x41, 0x64, 0x64, 0x3b, 0x66, 0x75, 0x6e,
  0x63, 0x74, 0x69, 0x6f, 0x6e, 0x61, 0x6c, 0x5f, 0x37, 0x5f, 0x31, 0x2f,
  0x62, 0x61, 0x74, 0x63, 0x68, 0x5f, 0x6e, 0x6f, 0x72, 0x6d, 0x61, 0x6c,
  0x69, 0x7a, 0x61, 0x74, 0x69, 0x6f, 0x6e, 0x5f, 0x31, 0x30, 0x5f, 0x31,
  0x2f, 0x62, 0x61, 0x74, 0x63, 0x68, 0x6e, 0x6f, 0x72, 0x6d, 0x2f, 0x6d,
  0x75, 0x6c, 0x3b, 0x66, 0x75, 0x6e, 0x63, 0x74, 0x69, 0x6f, 0x6e, 0x61,
  0x6c, 0x5f, 0x37, 0x5f, 0x31, 0x2f, 0x73, 0x65, 0x70, 0x61, 0x72, 0x61,
  0x62, 0x6c, 0x65, 0x5f, 0x63, 0x6f, 0x6e, 0x76, 0x32, 0x64, 0x5f, 0x31,
  0x30, 0x5f, 0x31, 0x2f, 0x73, 0x65, 0x70, 0x61, 0x72, 0x61, 0x62, 0x6c,
  0x65, 0x5f, 0x63, 0x6f, 0x6e, 0x76, 0x32, 0x64, 0x3b, 0x66, 0x75, 0x6e,
  0x63, 0x74, 0x69, 0x6f, 0x6e, 0x61, 0x6c, 0x5f, 0x37, 0x5f, 0x31, 0x2f,
  0x62, 0x61, 0x74, 0x63, 0x68, 0x5f, 0x6e, 0x6f, 0x72, 0x6d, 0x61, 0x6c,
  0x69, 0x7a, 0x61, 0x74, 0x69, 0x6f, 0x6e, 0x5f, 0x31, 0x30, 0x5f, 0x31,
  0x2f, 0x62, 0x61, 0x74, 0x63, 0x68, 0x6e, 0x6f, 0x72, 0x6d, 0x2f, 0x73,
  0x75, 0x62, 0x00, 0x00, 0x04, 0x00, 0x00, 0x00, 0x01, 0x00, 0x00, 0x00,
  0x21, 0x00, 0x00, 0x00, 0x14, 0x00, 0x00, 0x00, 0x18, 0x00, 0x00, 0x00,
  0x62, 0xe7, 0xff, 0xff, 0x00, 0x00, 0x00, 0x01, 0x18, 0x00, 0x00, 0x00,
  0x28, 0x00, 0x00, 0x00, 0x48, 0x00, 0x00, 0x00, 0x16, 0x00, 0x00, 0x00,
  0x00, 0x00, 0x00, 0x09, 0x80, 0x00, 0x00, 0x00, 0x04, 0x00, 0x00, 0x00,
  0xff, 0xff, 0xff, 0xff, 0x21, 0x00, 0x00, 0x00, 0x14, 0x00, 0x00, 0x00,
  0x0c, 0x00, 0x00, 0x00, 0x4c, 0xe7, 0xff, 0xff, 0x08, 0x00, 0x00, 0x00,
  0x14, 0x00, 0x00, 0x00, 0x01, 0x00, 0x00, 0x00, 0x2c, 0x00, 0x00, 0x00,
  0x00, 0x00, 0x00, 0x00, 0x00, 0x00, 0x00, 0x00, 0x01, 0x00, 0x00, 0x00,
  0xd3, 0xb2, 0x07, 0x3d, 0x3f, 0x00, 0x00, 0x00, 0x66, 0x75, 0x6e, 0x63,
  0x74, 0x69, 0x6f, 0x6e, 0x61, 0x6c, 0x5f, 0x37, 0x5f, 0x31, 0x2f, 0x73,
  0x65, 0x70, 0x61, 0x72, 0x61, 0x62, 0x6c, 0x65, 0x5f, 0x63, 0x6f, 0x6e,
  0x76, 0x32, 0x64, 0x5f, 0x31, 0x30, 0x5f, 0x31, 0x2f, 0x73, 0x65, 0x70,
  0x61, 0x72, 0x61, 0x62, 0x6c, 0x65, 0x5f, 0x63, 0x6f, 0x6e, 0x76, 0x32,
  0x64, 0x2f, 0x64, 0x65, 0x70, 0x74, 0x68, 0x77, 0x69, 0x73, 0x65, 0x00,
  0x04, 0x00, 0x00, 0x00, 0x01, 0x00, 0x00, 0x00, 0x21, 0x00, 0x00, 0x00,
  0x14, 0x00, 0x00, 0x00, 0x0c, 0x00, 0x00, 0x00, 0x12, 0xe8, 0xff, 0xff,
  0x00, 0x00, 0x00, 0x01, 0x18, 0x00, 0x00, 0x00, 0x28, 0x00, 0x00, 0x00,
  0x44, 0x00, 0x00, 0x00, 0x15, 0x00, 0x00, 0x00, 0x00, 0x00, 0x00, 0x09,
  0x68, 0x00, 0x00, 0x00, 0x04, 0x00, 0x00, 0x00, 0xff, 0xff, 0xff, 0xff,
  0x21, 0x00, 0x00, 0x00, 0x14, 0x00, 0x00, 0x00, 0x0c, 0x00, 0x00, 0x00,
  0xfc, 0xe7, 0xff, 0xff, 0x08, 0x00, 0x00, 0x00, 0x10, 0x00, 0x00, 0x00,
  0x01, 0x00, 0x00, 0x00, 0x80, 0xff, 0xff, 0xff, 0xff, 0xff, 0xff, 0xff,
  0x01, 0x00, 0x00, 0x00, 0xbc, 0x5d, 0xc6, 0x3c, 0x2b, 0x00, 0x00, 0x00,
  0x66, 0x75, 0x6e, 0x63, 0x74, 0x69, 0x6f, 0x6e, 0x61, 0x6c, 0x5f, 0x37,
  0x5f, 0x31, 0x2f, 0x6d, 0x61, 0x78, 0x5f, 0x70, 0x6f, 0x6f, 0x6c, 0x69,
  0x6e, 0x67, 0x32, 0x64, 0x5f, 0x31, 0x33, 0x5f, 0x31, 0x2f, 0x4d, 0x61,
  0x78, 0x50, 0x6f, 0x6f, 0x6c, 0x32, 0x64, 0x00, 0x04, 0x00, 0x00, 0x00,
  0x01, 0x00, 0x00, 0x00, 0x21, 0x00, 0x00, 0x00, 0x14, 0x00, 0x00, 0x00,
  0x0c, 0x00, 0x00, 0x00, 0xaa, 0xe8, 0xff, 0xff, 0x00, 0x00, 0x00, 0x01,
  0x18, 0x00, 0x00, 0x00, 0x28, 0x00, 0x00, 0x00, 0x44, 0x00, 0x00, 0x00,
  0x14, 0x00, 0x00, 0x00, 0x00, 0x00, 0x00, 0x09, 0xc0, 0x01, 0x00, 0x00,
  0x04, 0x00, 0x00, 0x00, 0xff, 0xff, 0xff, 0xff, 0x42, 0x00, 0x00, 0x00,
  0x28, 0x00, 0x00, 0x00, 0x0c, 0x00, 0x00, 0x00, 0x94, 0xe8, 0xff, 0xff,
  0x08, 0x00, 0x00, 0x00, 0x10, 0x00, 0x00, 0x00, 0x01, 0x00, 0x00, 0x00,
  0x80, 0xff, 0xff, 0xff, 0xff, 0xff, 0xff, 0xff, 0x01, 0x00, 0x00, 0x00,
  0xbc, 0x5d, 0xc6, 0x3c, 0x82, 0x01, 0x00, 0x00, 0x66, 0x75, 0x6e, 0x63,
  0x74, 0x69, 0x6f, 0x6e, 0x61, 0x6c, 0x5f, 0x37, 0x5f, 0x31, 0x2f, 0x72,
  0x65, 0x5f, 0x6c, 0x75, 0x5f, 0x39, 0x5f, 0x31, 0x2f, 0x52, 0x65, 0x6c,
  0x75, 0x3b, 0x66, 0x75, 0x6e, 0x63, 0x74, 0x69, 0x6f, 0x6e, 0x61, 0x6c,
  0x5f, 0x37, 0x5f, 0x31, 0x2f, 0x62, 0x61, 0x74, 0x63, 0x68, 0x5f, 0x6e,
  0x6f, 0x72, 0x6d, 0x61, 0x6c, 0x69, 0x7a, 0x61, 0x74, 0x69, 0x6f, 0x6e,
  0x5f, 0x39, 0x5f, 0x31, 0x2f, 0x62, 0x61, 0x74, 0x63, 0x68, 0x6e, 0x6f,
  0x72, 0x6d, 0x2f, 0x61, 0x64, 0x64, 0x5f, 0x31, 0x3b, 0x66, 0x75, 0x6e,
  0x63, 0x74, 0x69, 0x6f, 0x6e, 0x61, 0x6c, 0x5f, 0x37, 0x5f, 0x31, 0x2f,
  0x62, 0x61, 0x74, 0x63, 0x68, 0x5f, 0x6e, 0x6f, 0x72, 0x6d, 0x61, 0x6c,
  0x69, 0x7a, 0x61, 0x74, 0x69, 0x6f, 0x6e, 0x5f, 0x39, 0x5f, 0x31, 0x2f,
  0x62, 0x61, 0x74, 0x63, 0x68, 0x6e, 0x6f, 0x72, 0x6d, 0x2f, 0x6d, 0x75,
  0x6c, 0x5f, 0x31, 0x3b, 0x66, 0x75, 0x6e, 0x63, 0x74, 0x69, 0x6f, 0x6e,
  0x61, 0x6c, 0x5f, 0x37, 0x5f, 0x31, 0x2f, 0x73, 0x65, 0x70, 0x61, 0x72,
  0x61, 0x62, 0x6c, 0x65, 0x5f, 0x63, 0x6f, 0x6e, 0x76, 0x32, 0x64, 0x5f,
  0x39, 0x5f, 0x31, 0x2f, 0x53, 0x71, 0x75, 0x65, 0x65, 0x7a, 0x65, 0x3b,
  0x66, 0x75, 0x6e, 0x63, 0x74, 0x69, 0x6f, 0x6e, 0x61, 0x6c, 0x5f, 0x37,
  0x5f, 0x31, 0x2f, 0x73, 0x65, 0x70, 0x61, 0x72, 0x61, 0x62, 0x6c, 0x65,
  0x5f, 0x63, 0x6f, 0x6e, 0x76, 0x32, 0x64, 0x5f, 0x39, 0x5f, 0x31, 0x2f,
  0x42, 0x69, 0x61, 0x73, 0x41, 0x64, 0x64, 0x3b, 0x66, 0x75, 0x6e, 0x63,
  0x74, 0x69, 0x6f, 0x6e, 0x61, 0x6c, 0x5f, 0x37, 0x5f, 0x31, 0x2f, 0x62,
  0x61, 0x74, 0x63, 0x68, 0x5f, 0x6e, 0x6f, 0x72, 0x6d, 0x61, 0x6c, 0x69,
  0x7a, 0x61, 0x74, 0x69, 0x6f, 0x6e, 0x5f, 0x39, 0x5f, 0x31, 0x2f, 0x62,
  0x61, 0x74, 0x63, 0x68, 0x6e, 0x6f, 0x72, 0x6d, 0x2f, 0x6d, 0x75, 0x6c,
  0x3b, 0x66, 0x75, 0x6e, 0x63, 0x74, 0x69, 0x6f, 0x6e, 0x61, 0x6c, 0x5f,
  0x37, 0x5f, 0x31, 0x2f, 0x73, 0x65, 0x70, 0x61, 0x72, 0x61, 0x62, 0x6c,
  0x65, 0x5f, 0x63, 0x6f, 0x6e, 0x76, 0x32, 0x64, 0x5f, 0x39, 0x5f, 0x31,
  0x2f, 0x73, 0x65, 0x70, 0x61, 0x72, 0x61, 0x62, 0x6c, 0x65, 0x5f, 0x63,
  0x6f, 0x6e, 0x76, 0x32, 0x64, 0x3b, 0x66, 0x75, 0x6e, 0x63, 0x74, 0x69,
  0x6f, 0x6e, 0x61, 0x6c, 0x5f, 0x37, 0x5f, 0x31, 0x2f, 0x62, 0x61, 0x74,
  0x63, 0x68, 0x5f, 0x6e, 0x6f, 0x72, 0x6d, 0x61, 0x6c, 0x69, 0x7a, 0x61,
  0x74, 0x69, 0x6f, 0x6e, 0x5f, 0x39, 0x5f, 0x31, 0x2f, 0x62, 0x61, 0x74,
  0x63, 0x68, 0x6e, 0x6f, 0x72, 0x6d, 0x2f, 0x73, 0x75, 0x62, 0x00, 0x00,
  0x04, 0x00, 0x00, 0x00, 0x01, 0x00, 0x00, 0x00, 0x42, 0x00, 0x00, 0x00,
  0x28, 0x00, 0x00, 0x00, 0x0c, 0x00, 0x00, 0x00, 0x9a, 0xea, 0xff, 0xff,
  0x00, 0x00, 0x00, 0x01, 0x18, 0x00, 0x00, 0x00, 0x28, 0x00, 0x00, 0x00,
  0x44, 0x00, 0x00, 0x00, 0x13, 0x00, 0x00, 0x00, 0x00, 0x00, 0x00, 0x09,
  0x7c, 0x00, 0x00, 0x00, 0x04, 0x00, 0x00, 0x00, 0xff, 0xff, 0xff, 0xff,
  0x42, 0x00, 0x00, 0x00, 0x28, 0x00, 0x00, 0x00, 0x01, 0x00, 0x00, 0x00,
  0x84, 0xea, 0xff, 0xff, 0x08, 0x00, 0x00, 0x00, 0x10, 0x00, 0x00, 0x00,
  0x01, 0x00, 0x00, 0x00, 0x34, 0x00, 0x00, 0x00, 0x00, 0x00, 0x00, 0x00,
  0x01, 0x00, 0x00, 0x00, 0xe3, 0xfa, 0xf2, 0x3d, 0x3f, 0x00, 0x00, 0x00,
  0x66, 0x75, 0x6e, 0x63, 0x74, 0x69, 0x6f, 0x6e, 0x61, 0x6c, 0x5f, 0x37,
  0x5f, 0x31, 0x2f, 0x73, 0x65, 0x70, 0x61, 0x72, 0x61, 0x62, 0x6c, 0x65,
  0x5f, 0x63, 0x6f, 0x6e, 0x76, 0x32, 0x64, 0x5f, 0x39, 0x5f, 0x31, 0x2f,
  0x73, 0x65, 0x70, 0x61, 0x72, 0x61, 0x62, 0x6c, 0x65, 0x5f, 0x63, 0x6f,
  0x6e, 0x76, 0x32, 0x64, 0x2f, 0x64, 0x65, 0x70, 0x74, 0x68, 0x77, 0x69,
  0x73, 0x65, 0x32, 0x00, 0x04, 0x00, 0x00, 0x00, 0x01, 0x00, 0x00, 0x00,
  0x42, 0x00, 0x00, 0x00, 0x28, 0x00, 0x00, 0x00, 0x01, 0x00, 0x00, 0x00,
  0x9e, 0xeb, 0xff, 0xff, 0x00, 0x00, 0x00, 0x01, 0x14, 0x00, 0x00, 0x00,
  0x34, 0x00, 0x00, 0x00, 0x12, 0x00, 0x00, 0x00, 0x00, 0x00, 0x00, 0x09,
  0x40, 0x00, 0x00, 0x00, 0x9a, 0xf8, 0xff, 0xff, 0x03, 0x00, 0x00, 0x00,
  0x08, 0x00, 0x00, 0x00, 0x10, 0x00, 0x00, 0x00, 0x01, 0x00, 0x00, 0x00,
  0x00, 0x00, 0x00, 0x00, 0x00, 0x00, 0x00, 0x00, 0x01, 0x00, 0x00, 0x00,
  0x57, 0xb7, 0x6e, 0x3b, 0x13, 0x00, 0x00, 0x00, 0x74, 0x66, 0x6c, 0x2e,
  0x70, 0x73, 0x65, 0x75, 0x64, 0x6f, 0x5f, 0x71, 0x63, 0x6f, 0x6e, 0x73,
  0x74, 0x31, 0x35, 0x00, 0x04, 0x00, 0x00, 0x00, 0x01, 0x00, 0x00, 0x00,
  0x03, 0x00, 0x00, 0x00, 0x03, 0x00, 0x00, 0x00, 0x01, 0x00, 0x00, 0x00,
  0x0a, 0xec, 0xff, 0xff, 0x00, 0x00, 0x00, 0x01, 0x14, 0x00, 0x00, 0x00,
  0x34, 0x00, 0x00, 0x00, 0x11, 0x00, 0x00, 0x00, 0x00, 0x00, 0x00, 0x02,
  0x40, 0x00, 0x00, 0x00, 0x84, 0xeb, 0xff, 0xff, 0x08, 0x00, 0x00, 0x00,
  0x14, 0x00, 0x00, 0x00, 0x01, 0x00, 0x00, 0x00, 0x00, 0x00, 0x00, 0x00,
  0x00, 0x00, 0x00, 0x00, 0x00, 0x00, 0x00, 0x00, 0x01, 0x00, 0x00, 0x00,
  0xbb, 0xb5, 0x9d, 0x39, 0x13, 0x00, 0x00, 0x00, 0x74, 0x66, 0x6c, 0x2e,
  0x70, 0x73, 0x65, 0x75, 0x64, 0x6f, 0x5f, 0x71, 0x63, 0x6f, 0x6e, 0x73,
  0x74, 0x31, 0x34, 0x00, 0x01, 0x00, 0x00, 0x00, 0x01, 0x00, 0x00, 0x00,
  0x6a, 0xec, 0xff, 0xff, 0x00, 0x00, 0x00, 0x01, 0x14, 0x00, 0x00, 0x00,
  0xb8, 0x00, 0x00, 0x00, 0x10, 0x00, 0x00, 0x00, 0x00, 0x00, 0x00, 0x09,
  0xc4, 0x00, 0x00, 0x00, 0xe4, 0xeb, 0xff, 0xff, 0x08, 0x00, 0x00, 0x00,
  0x6c, 0x00, 0x00, 0x00, 0x0c, 0x00, 0x00, 0x00, 0x00, 0x00, 0x00, 0x00,
  0x00, 0x00, 0x00, 0x00, 0x00, 0x00, 0x00, 0x00, 0x00, 0x00, 0x00, 0x00,
  0x00, 0x00, 0x00, 0x00, 0x00, 0x00, 0x00, 0x00, 0x00, 0x00, 0x00, 0x00,
  0x00, 0x00, 0x00, 0x00, 0x00, 0x00, 0x00, 0x00, 0x00, 0x00, 0x00, 0x00,
  0x00, 0x00, 0x00, 0x00, 0x00, 0x00, 0x00, 0x00, 0x00, 0x00, 0x00, 0x00,
  0x00, 0x00, 0x00, 0x00, 0x00, 0x00, 0x00, 0x00, 0x00, 0x00, 0x00, 0x00,
  0x00, 0x00, 0x00, 0x00, 0x00, 0x00, 0x00, 0x00, 0x00, 0x00, 0x00, 0x00,
  0x00, 0x00, 0x00, 0x00, 0x00, 0x00, 0x00, 0x00, 0x00, 0x00, 0x00, 0x00,
  0x00, 0x00, 0x00, 0x00, 0x00, 0x00, 0x00, 0x00, 0x00, 0x00, 0x00, 0x00,
  0x0c, 0x00, 0x00, 0x00, 0x36, 0x9e, 0xdd, 0x3a, 0xc7, 0xa0, 0x12, 0x3b,
  0x66, 0x58, 0x1b, 0x3b, 0xa0, 0x20, 0x63, 0x3b, 0xf1, 0xea, 0x00, 0x3b,
  0x62, 0xc4, 0x17, 0x3b, 0x14, 0xe6, 0x05, 0x3b, 0xb8, 0x25, 0x33, 0x3b,
  0xc8, 0x7f, 0x44, 0x3b, 0xe0, 0x2c, 0x29, 0x3b, 0x61, 0x02, 0x27, 0x3b,
  0x0f, 0x45, 0x2d, 0x3b, 0x13, 0x00, 0x00, 0x00, 0x74, 0x66, 0x6c, 0x2e,
  0x70, 0x73, 0x65, 0x75, 0x64, 0x6f, 0x5f, 0x71, 0x63, 0x6f, 0x6e, 0x73,
  0x74, 0x31, 0x33, 0x00, 0x04, 0x00, 0x00, 0x00, 0x0c, 0x00, 0x00, 0x00,
  0x01, 0x00, 0x00, 0x00, 0x01, 0x00, 0x00, 0x00, 0x01, 0x00, 0x00, 0x00,
  0x5a, 0xed, 0xff, 0xff, 0x00, 0x00, 0x00, 0x01, 0x14, 0x00, 0x00, 0x00,
  0xb8, 0x00, 0x00, 0x00, 0x0f, 0x00, 0x00, 0x00, 0x00, 0x00, 0x00, 0x02,
  0xc4, 0x00, 0x00, 0x00, 0xd4, 0xec, 0xff, 0xff, 0x08, 0x00, 0x00, 0x00,
  0x6c, 0x00, 0x00, 0x00, 0x0c, 0x00, 0x00, 0x00, 0x00, 0x00, 0x00, 0x00,
  0x00, 0x00, 0x00, 0x00, 0x00, 0x00, 0x00, 0x00, 0x00, 0x00, 0x00, 0x00,
  0x00, 0x00, 0x00, 0x00, 0x00, 0x00, 0x00, 0x00, 0x00, 0x00, 0x00, 0x00,
  0x00, 0x00, 0x00, 0x00, 0x00, 0x00, 0x00, 0x00, 0x00, 0x00, 0x00, 0x00,
  0x00, 0x00, 0x00, 0x00, 0x00, 0x00, 0x00, 0x00, 0x00, 0x00, 0x00, 0x00,
  0x00, 0x00, 0x00, 0x00, 0x00, 0x00, 0x00, 0x00, 0x00, 0x00, 0x00, 0x00,
  0x00, 0x00, 0x00, 0x00, 0x00, 0x00, 0x00, 0x00, 0x00, 0x00, 0x00, 0x00,
  0x00, 0x00, 0x00, 0x00, 0x00, 0x00, 0x00, 0x00, 0x00, 0x00, 0x00, 0x00,
  0x00, 0x00, 0x00, 0x00, 0x00, 0x00, 0x00, 0x00, 0x00, 0x00, 0x00, 0x00,
  0x0c, 0x00, 0x00, 0x00, 0xc0, 0x58, 0x52, 0x39, 0xaf, 0x2b, 0x8b, 0x39,
  0xce, 0x71, 0x93, 0x39, 0x6f, 0x93, 0xd7, 0x39, 0xdf, 0xb8, 0x74, 0x39,
  0x61, 0x0c, 0x90, 0x39, 0x71, 0x2d, 0x7e, 0x39, 0x3a, 0x09, 0xaa, 0x39,
  0x5e, 0x81, 0xba, 0x39, 0x38, 0x92, 0xa0, 0x39, 0xec, 0x83, 0x9e, 0x39,
  0x17, 0x75, 0xa4, 0x39, 0x13, 0x00, 0x00, 0x00, 0x74, 0x66, 0x6c, 0x2e,
  0x70, 0x73, 0x65, 0x75, 0x64, 0x6f, 0x5f, 0x71, 0x63, 0x6f, 0x6e, 0x73,
  0x74, 0x31, 0x32, 0x00, 0x01, 0x00, 0x00, 0x00, 0x0c, 0x00, 0x00, 0x00,
  0x3e, 0xee, 0xff, 0xff, 0x00, 0x00, 0x00, 0x01, 0x14, 0x00, 0x00, 0x00,
  0xbc, 0x00, 0x00, 0x00, 0x0e, 0x00, 0x00, 0x00, 0x00, 0x00, 0x00, 0x09,
  0xc8, 0x00, 0x00, 0x00, 0x3a, 0xfb, 0xff, 0xff, 0x03, 0x00, 0x00, 0x00,
  0x08, 0x00, 0x00, 0x00, 0x6c, 0x00, 0x00, 0x00, 0x0c, 0x00, 0x00, 0x00,
  0x00, 0x00, 0x00, 0x00, 0x00, 0x00, 0x00, 0x00, 0x00, 0x00, 0x00, 0x00,
  0x00, 0x00, 0x00, 0x00, 0x00, 0x00, 0x00, 0x00, 0x00, 0x00, 0x00, 0x00,
  0x00, 0x00, 0x00, 0x00, 0x00, 0x00, 0x00, 0x00, 0x00, 0x00, 0x00, 0x00,
  0x00, 0x00, 0x00, 0x00, 0x00, 0x00, 0x00, 0x00, 0x00, 0x00, 0x00, 0x00,
  0x00, 0x00, 0x00, 0x00, 0x00, 0x00, 0x00, 0x00, 0x00, 0x00, 0x00, 0x00,
  0x00, 0x00, 0x00, 0x00, 0x00, 0x00, 0x00, 0x00, 0x00, 0x00, 0x00, 0x00,
  0x00, 0x00, 0x00, 0x00, 0x00, 0x00, 0x00, 0x00, 0x00, 0x00, 0x00, 0x00,
  0x00, 0x00, 0x00, 0x00, 0x00, 0x00, 0x00, 0x00, 0x00, 0x00, 0x00, 0x00,
  0x00, 0x00, 0x00, 0x00, 0x0c, 0x00, 0x00, 0x00, 0x33, 0xab, 0xf7, 0x3a,
  0xd1, 0x9c, 0xfd, 0x3a, 0xca, 0xb3, 0x2d, 0x3b, 0x54, 0x12, 0x70, 0x3b,
  0x2f, 0x2b, 0x1d, 0x3b, 0x15, 0x8f, 0x1b, 0x3b, 0xd6, 0x89, 0x24, 0x3b,
  0xab, 0xac, 0x1b, 0x3b, 0xe1, 0xef, 0x58, 0x3b, 0xb7, 0x68, 0x2b, 0x3b,
  0x51, 0x0a, 0x15, 0x3b, 0x79, 0x94, 0x2e, 0x3b, 0x13, 0x00, 0x00, 0x00,
  0x74, 0x66, 0x6c, 0x2e, 0x70, 0x73, 0x65, 0x75, 0x64, 0x6f, 0x5f, 0x71,
  0x63, 0x6f, 0x6e, 0x73, 0x74, 0x31, 0x31, 0x00, 0x04, 0x00, 0x00, 0x00,
  0x01, 0x00, 0x00, 0x00, 0x03, 0x00, 0x00, 0x00, 0x03, 0x00, 0x00, 0x00,
  0x0c, 0x00, 0x00, 0x00, 0x32, 0xef, 0xff, 0xff, 0x00, 0x00, 0x00, 0x01,
  0x14, 0x00, 0x00, 0x00, 0xb4, 0x00, 0x00, 0x00, 0x0d, 0x00, 0x00, 0x00,
  0x00, 0x00, 0x00, 0x02, 0xc0, 0x00, 0x00, 0x00, 0xac, 0xee, 0xff, 0xff,
  0x08, 0x00, 0x00, 0x00, 0x68, 0x00, 0x00, 0x00, 0x0c, 0x00, 0x00, 0x00,
  0x00, 0x00, 0x00, 0x00, 0x00, 0x00, 0x00, 0x00, 0x00, 0x00, 0x00, 0x00,
  0x00, 0x00, 0x00, 0x00, 0x00, 0x00, 0x00, 0x00, 0x00, 0x00, 0x00, 0x00,
  0x00, 0x00, 0x00, 0x00, 0x00, 0x00, 0x00, 0x00, 0x00, 0x00, 0x00, 0x00,
  0x00, 0x00, 0x00, 0x00, 0x00, 0x00, 0x00, 0x00, 0x00, 0x00, 0x00, 0x00,
  0x00, 0x00, 0x00, 0x00, 0x00, 0x00, 0x00, 0x00, 0x00, 0x00, 0x00, 0x00,
  0x00, 0x00, 0x00, 0x00, 0x00, 0x00, 0x00, 0x00, 0x00, 0x00, 0x00, 0x00,
  0x00, 0x00, 0x00, 0x00, 0x00, 0x00, 0x00, 0x00, 0x00, 0x00, 0x00, 0x00,
  0x00, 0x00, 0x00, 0x00, 0x00, 0x00, 0x00, 0x00, 0x00, 0x00, 0x00, 0x00,
  0x0c, 0x00, 0x00, 0x00, 0x19, 0xe9, 0x3f, 0x38, 0x26, 0x84, 0x44, 0x38,
  0xa8, 0x98, 0x86, 0x38, 0x14, 0x06, 0xba, 0x38, 0xe5, 0x91, 0x73, 0x38,
  0x3f, 0x13, 0x71, 0x38, 0xb5, 0xfd, 0x7e, 0x38, 0x19, 0x41, 0x71, 0x38,
  0xf6, 0x18, 0xa8, 0x38, 0xc0, 0xd1, 0x84, 0x38, 0x1a, 0xf9, 0x66, 0x38,
  0xc2, 0x46, 0x87, 0x38, 0x13, 0x00, 0x00, 0x00, 0x74, 0x66, 0x6c, 0x2e,
  0x70, 0x73, 0x65, 0x75, 0x64, 0x6f, 0x5f, 0x71, 0x63, 0x6f, 0x6e, 0x73,
  0x74, 0x31, 0x30, 0x00, 0x01, 0x00, 0x00, 0x00, 0x0c, 0x00, 0x00, 0x00,
  0x12, 0xf0, 0xff, 0xff, 0x00, 0x00, 0x00, 0x01, 0x14, 0x00, 0x00, 0x00,
  0x48, 0x01, 0x00, 0x00, 0x0c, 0x00, 0x00, 0x00, 0x00, 0x00, 0x00, 0x09,
  0x54, 0x01, 0x00, 0x00, 0x8c, 0xef, 0xff, 0xff, 0x08, 0x00, 0x00, 0x00,
  0xcc, 0x00, 0x00, 0x00, 0x18, 0x00, 0x00, 0x00, 0x00, 0x00, 0x00, 0x00,
  0x00, 0x00, 0x00, 0x00, 0x00, 0x00, 0x00, 0x00, 0x00, 0x00, 0x00, 0x00,
  0x00, 0x00, 0x00, 0x00, 0x00, 0x00, 0x00, 0x00, 0x00, 0x00, 0x00, 0x00,
  0x00, 0x00, 0x00, 0x00, 0x00, 0x00, 0x00, 0x00, 0x00, 0x00, 0x00, 0x00,
  0x00, 0x00, 0x00, 0x00, 0x00, 0x00, 0x00, 0x00, 0x00, 0x00, 0x00, 0x00,
  0x00, 0x00, 0x00, 0x00, 0x00, 0x00, 0x00, 0x00, 0x00, 0x00, 0x00, 0x00,
  0x00, 0x00, 0x00, 0x00, 0x00, 0x00, 0x00, 0x00, 0x00, 0x00, 0x00, 0x00,
  0x00, 0x00, 0x00, 0x00, 0x00, 0x00, 0x00, 0x00, 0x00, 0x00, 0x00, 0x00,
  0x00, 0x00, 0x00, 0x00, 0x00, 0x00, 0x00, 0x00, 0x00, 0x00, 0x00, 0x00,
  0x00, 0x00, 0x00, 0x00, 0x00, 0x00, 0x00, 0x00, 0x00, 0x00, 0x00, 0x00,
  0x00, 0x00, 0x00, 0x00, 0x00, 0x00, 0x00, 0x00, 0x00, 0x00, 0x00, 0x00,
  0x00, 0x00, 0x00, 0x00, 0x00, 0x00, 0x00, 0x00, 0x00, 0x00, 0x00, 0x00,
  0x00, 0x00, 0x00, 0x00, 0x00, 0x00, 0x00, 0x00, 0x00, 0x00, 0x00, 0x00,
  0x00, 0x00, 0x00, 0x00, 0x00, 0x00, 0x00, 0x00, 0x00, 0x00, 0x00, 0x00,
  0x00, 0x00, 0x00, 0x00, 0x00, 0x00, 0x00, 0x00, 0x00, 0x00, 0x00, 0x00,
  0x00, 0x00, 0x00, 0x00, 0x00, 0x00, 0x00, 0x00, 0x00, 0x00, 0x00, 0x00,
  0x00, 0x00, 0x00, 0x00, 0x00, 0x00, 0x00, 0x00, 0x00, 0x00, 0x00, 0x00,
  0x18, 0x00, 0x00, 0x00, 0x2e, 0x6b, 0x1e, 0x3c, 0x9e, 0xfb, 0xd7, 0x3b,
  0x38, 0x05, 0x24, 0x3c, 0x8b, 0xab, 0x21, 0x3c, 0xec, 0x70, 0xf0, 0x3b,
  0x5f, 0xec, 0x56, 0x3c, 0x90, 0x92, 0x48, 0x3c, 0xdf, 0x81, 0x57, 0x3c,
  0x87, 0x70, 0x42, 0x3c, 0x34, 0x03, 0x34, 0x3c, 0x92, 0x67, 0x1b, 0x3c,
  0x53, 0x37, 0x14, 0x3c, 0xda, 0xba, 0xe1, 0x3b, 0xbe, 0x5e, 0x10, 0x3c,
  0x02, 0xde, 0xf6, 0x3b, 0xf7, 0x4e, 0x22, 0x3c, 0x2d, 0xb4, 0xae, 0x3b,
  0x39, 0xec, 0x69, 0x3c, 0xa8, 0x2c, 0x2b, 0x3c, 0x36, 0xf4, 0x08, 0x3c,
  0x54, 0x1a, 0xb7, 0x3b, 0x8b, 0x7e, 0x35, 0x3c, 0x27, 0xd8, 0x1f, 0x3c,
  0x60, 0x47, 0x30, 0x3c, 0x12, 0x00, 0x00, 0x00, 0x74, 0x66, 0x6c, 0x2e,
  0x70, 0x73, 0x65, 0x75, 0x64, 0x6f, 0x5f, 0x71, 0x63, 0x6f, 0x6e, 0x73,
  0x74, 0x39, 0x00, 0x00, 0x04, 0x00, 0x00, 0x00, 0x18, 0x00, 0x00, 0x00,
  0x01, 0x00, 0x00, 0x00, 0x01, 0x00, 0x00, 0x00, 0x0c, 0x00, 0x00, 0x00,
  0x92, 0xf1, 0xff, 0xff, 0x00, 0x00, 0x00, 0x01, 0x14, 0x00, 0x00, 0x00,
  0x44, 0x01, 0x00, 0x00, 0x0b, 0x00, 0x00, 0x00, 0x00, 0x00, 0x00, 0x02,
  0x50, 0x01, 0x00, 0x00, 0x0c, 0xf1, 0xff, 0xff, 0x08, 0x00, 0x00, 0x00,
  0xc8, 0x00, 0x00, 0x00, 0x18, 0x00, 0x00, 0x00, 0x00, 0x00, 0x00, 0x00,
  0x00, 0x00, 0x00, 0x00, 0x00, 0x00, 0x00, 0x00, 0x00, 0x00, 0x00, 0x00,
  0x00, 0x00, 0x00, 0x00, 0x00, 0x00, 0x00, 0x00, 0x00, 0x00, 0x00, 0x00,
  0x00, 0x00, 0x00, 0x00, 0x00, 0x00, 0x00, 0x00, 0x00, 0x00, 0x00, 0x00,
  0x00, 0x00, 0x00, 0x00, 0x00, 0x00, 0x00, 0x00, 0x00, 0x00, 0x00, 0x00,
  0x00, 0x00, 0x00, 0x00, 0x00, 0x00, 0x00, 0x00, 0x00, 0x00, 0x00, 0x00,
  0x00, 0x00, 0x00, 0x00, 0x00, 0x00, 0x00, 0x00, 0x00, 0x00, 0x00, 0x00,
  0x00, 0x00, 0x00, 0x00, 0x00, 0x00, 0x00, 0x00, 0x00, 0x00, 0x00, 0x00,
  0x00, 0x00, 0x00, 0x00, 0x00, 0x00, 0x00, 0x00, 0x00, 0x00, 0x00, 0x00,
  0x00, 0x00, 0x00, 0x00, 0x00, 0x00, 0x00, 0x00, 0x00, 0x00, 0x00, 0x00,
  0x00, 0x00, 0x00, 0x00, 0x00, 0x00, 0x00, 0x00, 0x00, 0x00, 0x00, 0x00,
  0x00, 0x00, 0x00, 0x00, 0x00, 0x00, 0x00, 0x00, 0x00, 0x00, 0x00, 0x00,
  0x00, 0x00, 0x00, 0x00, 0x00, 0x00, 0x00, 0x00, 0x00, 0x00, 0x00, 0x00,
  0x00, 0x00, 0x00, 0x00, 0x00, 0x00, 0x00, 0x00, 0x00, 0x00, 0x00, 0x00,
  0x00, 0x00, 0x00, 0x00, 0x00, 0x00, 0x00, 0x00, 0x00, 0x00, 0x00, 0x00,
  0x00, 0x00, 0x00, 0x00, 0x00, 0x00, 0x00, 0x00, 0x00, 0x00, 0x00, 0x00,
  0x00, 0x00, 0x00, 0x00, 0x00, 0x00, 0x00, 0x00, 0x18, 0x00, 0x00, 0x00,
  0x5d, 0xf2, 0xa7, 0x39, 0x1f, 0xf9, 0x64, 0x39, 0xa7, 0xe2, 0xad, 0x39,
  0xca, 0x64, 0xab, 0x39, 0x02, 0xe7, 0x7e, 0x39, 0x8f, 0xd9, 0xe3, 0x39,
  0xca, 0xa2, 0xd4, 0x39, 0x0d, 0x78, 0xe4, 0x39, 0x53, 0x22, 0xce, 0x39,
  0xde, 0xd6, 0xbe, 0x39, 0x58, 0xc0, 0xa4, 0x39, 0x6b, 0x21, 0x9d, 0x39,
  0x6e, 0x4e, 0x6f, 0x39, 0x9e, 0x0d, 0x99, 0x39, 0x85, 0xdb, 0x82, 0x39,
  0x0a, 0x12, 0xac, 0x39, 0x1a, 0x36, 0x39, 0x39, 0xf2, 0xfd, 0xf7, 0x39,
  0x3d, 0x78, 0xb5, 0x39, 0xe6, 0x30, 0x91, 0x39, 0x93, 0x1d, 0x42, 0x39,
  0x06, 0x69, 0xc0, 0x39, 0x49, 0x75, 0xa9, 0x39, 0x8d, 0xe1, 0xba, 0x39,
  0x12, 0x00, 0x00, 0x00, 0x74, 0x66, 0x6c, 0x2e, 0x70, 0x73, 0x65, 0x75,
  0x64, 0x6f, 0x5f, 0x71, 0x63, 0x6f, 0x6e, 0x73, 0x74, 0x38, 0x00, 0x00,
  0x01, 0x00, 0x00, 0x00, 0x18, 0x00, 0x00, 0x00, 0x02, 0xf3, 0xff, 0xff,
  0x00, 0x00, 0x00, 0x01, 0x28, 0x00, 0x00, 0x00, 0x60, 0x01, 0x00, 0x00,
  0x0a, 0x00, 0x00, 0x00, 0x00, 0x00, 0x00, 0x09, 0x6c, 0x01, 0x00, 0x00,
  0x00, 0x00, 0x12, 0x00, 0x10, 0x00, 0x00, 0x00, 0x00, 0x00, 0x0c, 0x00,
  0x08, 0x00, 0x00, 0x00, 0x00, 0x00, 0x04, 0x00, 0x12, 0x00, 0x00, 0x00,
  0x03, 0x00, 0x00, 0x00, 0x08, 0x00, 0x00, 0x00, 0xcc, 0x00, 0x00, 0x00,
  0x18, 0x00, 0x00, 0x00, 0x00, 0x00, 0x00, 0x00, 0x00, 0x00, 0x00, 0x00,
  0x00, 0x00, 0x00, 0x00, 0x00, 0x00, 0x00, 0x00, 0x00, 0x00, 0x00, 0x00,
  0x00, 0x00, 0x00, 0x00, 0x00, 0x00, 0x00, 0x00, 0x00, 0x00, 0x00, 0x00,
  0x00, 0x00, 0x00, 0x00, 0x00, 0x00, 0x00, 0x00, 0x00, 0x00, 0x00, 0x00,
  0x00, 0x00, 0x00, 0x00, 0x00, 0x00, 0x00, 0x00, 0x00, 0x00, 0x00, 0x00,
  0x00, 0x00, 0x00, 0x00, 0x00, 0x00, 0x00, 0x00, 0x00, 0x00, 0x00, 0x00,
  0x00, 0x00, 0x00, 0x00, 0x00, 0x00, 0x00, 0x00, 0x00, 0x00, 0x00, 0x00,
  0x00, 0x00, 0x00, 0x00, 0x00, 0x00, 0x00, 0x00, 0x00, 0x00, 0x00, 0x00,
  0x00, 0x00, 0x00, 0x00, 0x00, 0x00, 0x00, 0x00, 0x00, 0x00, 0x00, 0x00,
  0x00, 0x00, 0x00, 0x00, 0x00, 0x00, 0x00, 0x00, 0x00, 0x00, 0x00, 0x00,
  0x00, 0x00, 0x00, 0x00, 0x00, 0x00, 0x00, 0x00, 0x00, 0x00, 0x00, 0x00,
  0x00, 0x00, 0x00, 0x00, 0x00, 0x00, 0x00, 0x00, 0x00, 0x00, 0x00, 0x00,
  0x00, 0x00, 0x00, 0x00, 0x00, 0x00, 0x00, 0x00, 0x00, 0x00, 0x00, 0x00,
  0x00, 0x00, 0x00, 0x00, 0x00, 0x00, 0x00, 0x00, 0x00, 0x00, 0x00, 0x00,
  0x00, 0x00, 0x00, 0x00, 0x00, 0x00, 0x00, 0x00, 0x00, 0x00, 0x00, 0x00,
  0x00, 0x00, 0x00, 0x00, 0x00, 0x00, 0x00, 0x00, 0x00, 0x00, 0x00, 0x00,
  0x00, 0x00, 0x00, 0x00, 0x00, 0x00, 0x00, 0x00, 0x18, 0x00, 0x00, 0x00,
  0x20, 0x57, 0x23, 0x3b, 0xd9, 0xa2, 0x1d, 0x3b, 0xd4, 0xeb, 0x1f, 0x3b,
  0x27, 0x29, 0x0d, 0x3b, 0xec, 0xfc, 0x69, 0x3b, 0x39, 0x1a, 0x16, 0x3b,
  0x93, 0x9b, 0x66, 0x3b, 0xc7, 0x0f, 0x0a, 0x3b, 0xc5, 0x52, 0x10, 0x3b,
  0x9c, 0xfd, 0x38, 0x3b, 0xee, 0x9e, 0x38, 0x3b, 0x08, 0xd3, 0x2f, 0x3b,
  0x05, 0xe0, 0x27, 0x3b, 0x9b, 0x40, 0x0d, 0x3b, 0x48, 0x6e, 0x28, 0x3b,
  0xa0, 0x87, 0x09, 0x3b, 0xbe, 0xf8, 0xf8, 0x3a, 0x10, 0x27, 0xb3, 0x3a,
  0xe1, 0x6d, 0x44, 0x3b, 0x75, 0x65, 0x34, 0x3b, 0xb6, 0x15, 0x0d, 0x3b,
  0xad, 0x41, 0x11, 0x3b, 0xae, 0x2b, 0xf3, 0x3a, 0x0f, 0x8f, 0x04, 0x3b,
  0x12, 0x00, 0x00, 0x00, 0x74, 0x66, 0x6c, 0x2e, 0x70, 0x73, 0x65, 0x75,
  0x64, 0x6f, 0x5f, 0x71, 0x63, 0x6f, 0x6e, 0x73, 0x74, 0x37, 0x00, 0x00,
  0x04, 0x00, 0x00, 0x00, 0x01, 0x00, 0x00, 0x00, 0x03, 0x00, 0x00, 0x00,
  0x03, 0x00, 0x00, 0x00, 0x18, 0x00, 0x00, 0x00, 0x9a, 0xf4, 0xff, 0xff,
  0x00, 0x00, 0x00, 0x01, 0x14, 0x00, 0x00, 0x00, 0x44, 0x01, 0x00, 0x00,
  0x09, 0x00, 0x00, 0x00, 0x00, 0x00, 0x00, 0x02, 0x50, 0x01, 0x00, 0x00,
  0x14, 0xf4, 0xff, 0xff, 0x08, 0x00, 0x00, 0x00, 0xc8, 0x00, 0x00, 0x00,
  0x18, 0x00, 0x00, 0x00, 0x00, 0x00, 0x00, 0x00, 0x00, 0x00, 0x00, 0x00,
  0x00, 0x00, 0x00, 0x00, 0x00, 0x00, 0x00, 0x00, 0x00, 0x00, 0x00, 0x00,
  0x00, 0x00, 0x00, 0x00, 0x00, 0x00, 0x00, 0x00, 0x00, 0x00, 0x00, 0x00,
  0x00, 0x00, 0x00, 0x00, 0x00, 0x00, 0x00, 0x00, 0x00, 0x00, 0x00, 0x00,
  0x00, 0x00, 0x00, 0x00, 0x00, 0x00, 0x00, 0x00, 0x00, 0x00, 0x00, 0x00,
  0x00, 0x00, 0x00, 0x00, 0x00, 0x00, 0x00, 0x00, 0x00, 0x00, 0x00, 0x00,
  0x00, 0x00, 0x00, 0x00, 0x00, 0x00, 0x00, 0x00, 0x00, 0x00, 0x00, 0x00,
  0x00, 0x00, 0x00, 0x00, 0x00, 0x00, 0x00, 0x00, 0x00, 0x00, 0x00, 0x00,
  0x00, 0x00, 0x00, 0x00, 0x00, 0x00, 0x00, 0x00, 0x00, 0x00, 0x00, 0x00,
  0x00, 0x00, 0x00, 0x00, 0x00, 0x00, 0x00, 0x00, 0x00, 0x00, 0x00, 0x00,
  0x00, 0x00, 0x00, 0x00, 0x00, 0x00, 0x00, 0x00, 0x00, 0x00, 0x00, 0x00,
  0x00, 0x00, 0x00, 0x00, 0x00, 0x00, 0x00, 0x00, 0x00, 0x00, 0x00, 0x00,
  0x00, 0x00, 0x00, 0x00, 0x00, 0x00, 0x00, 0x00, 0x00, 0x00, 0x00, 0x00,
  0x00, 0x00, 0x00, 0x00, 0x00, 0x00, 0x00, 0x00, 0x00, 0x00, 0x00, 0x00,
  0x00, 0x00, 0x00, 0x00, 0x00, 0x00, 0x00, 0x00, 0x00, 0x00, 0x00, 0x00,
  0x00, 0x00, 0x00, 0x00, 0x00, 0x00, 0x00, 0x00, 0x00, 0x00, 0x00, 0x00,
  0x00, 0x00, 0x00, 0x00, 0x18, 0x00, 0x00, 0x00, 0x6d, 0x71, 0xb1, 0x38,
  0x12, 0x3f, 0xab, 0x38, 0x8e, 0xba, 0xad, 0x38, 0x38, 0x59, 0x99, 0x38,
  0xbe, 0x30, 0xfe, 0x38, 0xed, 0x0f, 0xa3, 0x38, 0xaf, 0x84, 0xfa, 0x38,
  0x58, 0xfb, 0x95, 0x38, 0xbd, 0xc8, 0x9c, 0x38, 0x72, 0xf6, 0xc8, 0x38,
  0x98, 0x8f, 0xc8, 0x38, 0x44, 0x01, 0xbf, 0x38, 0x8d, 0x5e, 0xb6, 0x38,
  0xb3, 0x72, 0x99, 0x38, 0x19, 0xf9, 0xb6, 0x38, 0x70, 0x67, 0x95, 0x38,
  0xe0, 0x3b, 0x87, 0x38, 0xdc, 0x9e, 0x42, 0x38, 0x8b, 0x63, 0xd5, 0x38,
  0xbf, 0xf8, 0xc3, 0x38, 0x19, 0x44, 0x99, 0x38, 0x46, 0xcc, 0x9d, 0x38,
  0x3b, 0x15, 0x84, 0x38, 0xff, 0x00, 0x90, 0x38, 0x12, 0x00, 0x00, 0x00,
  0x74, 0x66, 0x6c, 0x2e, 0x70, 0x73, 0x65, 0x75, 0x64, 0x6f, 0x5f, 0x71,
  0x63, 0x6f, 0x6e, 0x73, 0x74, 0x36, 0x00, 0x00, 0x01, 0x00, 0x00, 0x00,
  0x18, 0x00, 0x00, 0x00, 0x0a, 0xf6, 0xff, 0xff, 0x00, 0x00, 0x00, 0x01,
  0x14, 0x00, 0x00, 0x00, 0x68, 0x02, 0x00, 0x00, 0x08, 0x00, 0x00, 0x00,
  0x00, 0x00, 0x00, 0x09, 0x74, 0x02, 0x00, 0x00, 0x84, 0xf5, 0xff, 0xff,
  0x08, 0x00, 0x00, 0x00, 0x8c, 0x01, 0x00, 0x00, 0x30, 0x00, 0x00, 0x00,
  0x00, 0x00, 0x00, 0x00, 0x00, 0x00, 0x00, 0x00, 0x00, 0x00, 0x00, 0x00,
  0x00, 0x00, 0x00, 0x00, 0x00, 0x00, 0x00, 0x00, 0x00, 0x00, 0x00, 0x00,
  0x00, 0x00, 0x00, 0x00, 0x00, 0x00, 0x00, 0x00, 0x00, 0x00, 0x00, 0x00,
  0x00, 0x00, 0x00, 0x00, 0x00, 0x00, 0x00, 0x00, 0x00, 0x00, 0x00, 0x00,
  0x00, 0x00, 0x00, 0x00, 0x00, 0x00, 0x00, 0x00, 0x00, 0x00, 0x00, 0x00,
  0x00, 0x00, 0x00, 0x00, 0x00, 0x00, 0x00, 0x00, 0x00, 0x00, 0x00, 0x00,
  0x00, 0x00, 0x00, 0x00, 0x00, 0x00, 0x00, 0x00, 0x00, 0x00, 0x00, 0x00,
  0x00, 0x00, 0x00, 0x00, 0x00, 0x00, 0x00, 0x00, 0x00, 0x00, 0x00, 0x00,
  0x00, 0x00, 0x00, 0x00, 0x00, 0x00, 0x00, 0x00, 0x00, 0x00, 0x00, 0x00,
  0x00, 0x00, 0x00, 0x00, 0x00, 0x00, 0x00, 0x00, 0x00, 0x00, 0x00, 0x00,
  0x00, 0x00, 0x00, 0x00, 0x00, 0x00, 0x00, 0x00, 0x00, 0x00, 0x00, 0x00,
  0x00, 0x00, 0x00, 0x00, 0x00, 0x00, 0x00, 0x00, 0x00, 0x00, 0x00, 0x00,
  0x00, 0x00, 0x00, 0x00, 0x00, 0x00, 0x00, 0x00, 0x00, 0x00, 0x00, 0x00,
  0x00, 0x00, 0x00, 0x00, 0x00, 0x00, 0x00, 0x00, 0x00, 0x00, 0x00, 0x00,
  0x00, 0x00, 0x00, 0x00, 0x00, 0x00, 0x00, 0x00, 0x00, 0x00, 0x00, 0x00,
  0x00, 0x00, 0x00, 0x00, 0x00, 0x00, 0x00, 0x00, 0x00, 0x00, 0x00, 0x00,
  0x00, 0x00, 0x00, 0x00, 0x00, 0x00, 0x00, 0x00, 0x00, 0x00, 0x00, 0x00,
  0x00, 0x00, 0x00, 0x00, 0x00, 0x00, 0x00, 0x00, 0x00, 0x00, 0x00, 0x00,
  0x00, 0x00, 0x00, 0x00, 0x00, 0x00, 0x00, 0x00, 0x00, 0x00, 0x00, 0x00,
  0x00, 0x00, 0x00, 0x00, 0x00, 0x00, 0x00, 0x00, 0x00, 0x00, 0x00, 0x00,
  0x00, 0x00, 0x00, 0x00, 0x00, 0x00, 0x00, 0x00, 0x00, 0x00, 0x00, 0x00,
  0x00, 0x00, 0x00, 0x00, 0x00, 0x00, 0x00, 0x00, 0x00, 0x00, 0x00, 0x00,
  0x00, 0x00, 0x00, 0x00, 0x00, 0x00, 0x00, 0x00, 0x00, 0x00, 0x00, 0x00,
  0x00, 0x00, 0x00, 0x00, 0x00, 0x00, 0x00, 0x00, 0x00, 0x00, 0x00, 0x00,
  0x00, 0x00, 0x00, 0x00, 0x00, 0x00, 0x00, 0x00, 0x00, 0x00, 0x00, 0x00,
  0x00, 0x00, 0x00, 0x00, 0x00, 0x00, 0x00, 0x00, 0x00, 0x00, 0x00, 0x00,
  0x00, 0x00, 0x00, 0x00, 0x00, 0x00, 0x00, 0x00, 0x00, 0x00, 0x00, 0x00,
  0x00, 0x00, 0x00, 0x00, 0x00, 0x00, 0x00, 0x00, 0x00, 0x00, 0x00, 0x00,
  0x00, 0x00, 0x00, 0x00, 0x00, 0x00, 0x00, 0x00, 0x00, 0x00, 0x00, 0x00,
  0x00, 0x00, 0x00, 0x00, 0x00, 0x00, 0x00, 0x00, 0x00, 0x00, 0x00, 0x00,
  0x00, 0x00, 0x00, 0x00, 0x00, 0x00, 0x00, 0x00, 0x00, 0x00, 0x00, 0x00,
  0x00, 0x00, 0x00, 0x00, 0x00, 0x00, 0x00, 0x00, 0x00, 0x00, 0x00, 0x00,
  0x00, 0x00, 0x00, 0x00, 0x30, 0x00, 0x00, 0x00, 0xad, 0xd7, 0x2f, 0x3c,
  0x09, 0x3d, 0x0b, 0x3c, 0x0e, 0x00, 0x6c, 0x3c, 0x4f, 0x24, 0x01, 0x3c,
  0xf2, 0x28, 0x35, 0x3c, 0x57, 0x34, 0x22, 0x3c, 0x10, 0x97, 0x1c, 0x3c,
  0xb2, 0xbe, 0x07, 0x3c, 0x30, 0xb2, 0x27, 0x3c, 0x3b, 0x4d, 0x7b, 0x3c,
  0x06, 0xa5, 0x75, 0x3c, 0x97, 0x6e, 0x1e, 0x3c, 0xaa, 0x1f, 0x28, 0x3c,
  0xf5, 0x91, 0x25, 0x3c, 0x2a, 0x18, 0x28, 0x3c, 0xbc, 0x0c, 0x02, 0x3c,
  0xbf, 0xda, 0x3e, 0x3c, 0xac, 0x63, 0x5b, 0x3c, 0x67, 0x18, 0x67, 0x3c,
  0x35, 0xbb, 0xa1, 0x3c, 0x88, 0x1a, 0x21, 0x3c, 0xb1, 0xd5, 0x9b, 0x3c,
  0x85, 0x97, 0x60, 0x3c, 0x6f, 0x57, 0x07, 0x3c, 0xf2, 0x11, 0x45, 0x3c,
  0x5d, 0xa3, 0xf4, 0x3b, 0x19, 0xe6, 0x1f, 0x3c, 0x55, 0x6b, 0x29, 0x3c,
  0x99, 0x0a, 0x62, 0x3c, 0x88, 0xa6, 0x09, 0x3c, 0xcb, 0xd8, 0x1f, 0x3c,
  0x1a, 0x7b, 0x12, 0x3c, 0x6a, 0xc6, 0x36, 0x3c, 0x39, 0xe5, 0x30, 0x3c,
  0x47, 0x5e, 0x43, 0x3c, 0xd7, 0xb9, 0x0d, 0x3c, 0x0a, 0x5a, 0x17, 0x3c,
  0x5c, 0xdf, 0xe3, 0x3b, 0x70, 0xd9, 0xf1, 0x3b, 0xb8, 0x9a, 0x5f, 0x3c,
  0x5d, 0x2e, 0x37, 0x3c, 0xb9, 0xf0, 0x61, 0x3c, 0xc3, 0x18, 0x1f, 0x3c,
  0x89, 0xa5, 0x01, 0x3c, 0xb3, 0x66, 0x96, 0x3c, 0x05, 0x69, 0x4c, 0x3c,
  0x51, 0x27, 0x95, 0x3c, 0x84, 0x2e, 0x43, 0x3c, 0x12, 0x00, 0x00, 0x00,
  0x74, 0x66, 0x6c, 0x2e, 0x70, 0x73, 0x65, 0x75, 0x64, 0x6f, 0x5f, 0x71,
  0x63, 0x6f, 0x6e, 0x73, 0x74, 0x35, 0x00, 0x00, 0x04, 0x00, 0x00, 0x00,
  0x30, 0x00, 0x00, 0x00, 0x01, 0x00, 0x00, 0x00, 0x01, 0x00, 0x00, 0x00,
  0x18, 0x00, 0x00, 0x00, 0xaa, 0xf8, 0xff, 0xff, 0x00, 0x00, 0x00, 0x01,
  0x14, 0x00, 0x00, 0x00, 0x64, 0x02, 0x00, 0x00, 0x07, 0x00, 0x00, 0x00,
  0x00, 0x00, 0x00, 0x02, 0x70, 0x02, 0x00, 0x00, 0x24, 0xf8, 0xff, 0xff,
  0x08, 0x00, 0x00, 0x00, 0x88, 0x01, 0x00, 0x00, 0x30, 0x00, 0x00, 0x00,
  0x00, 0x00, 0x00, 0x00, 0x00, 0x00, 0x00, 0x00, 0x00, 0x00, 0x00, 0x00,
  0x00, 0x00, 0x00, 0x00, 0x00, 0x00, 0x00, 0x00, 0x00, 0x00, 0x00, 0x00,
  0x00, 0x00, 0x00, 0x00, 0x00, 0x00, 0x00, 0x00, 0x00, 0x00, 0x00, 0x00,
  0x00, 0x00, 0x00, 0x00, 0x00, 0x00, 0x00, 0x00, 0x00, 0x00, 0x00, 0x00,
  0x00, 0x00, 0x00, 0x00, 0x00, 0x00, 0x00, 0x00, 0x00, 0x00, 0x00, 0x00,
  0x00, 0x00, 0x00, 0x00, 0x00, 0x00, 0x00, 0x00, 0x00, 0x00, 0x00, 0x00,
  0x00, 0x00, 0x00, 0x00, 0x00, 0x00, 0x00, 0x00, 0x00, 0x00, 0x00, 0x00,
  0x00, 0x00, 0x00, 0x00, 0x00, 0x00, 0x00, 0x00, 0x00, 0x00, 0x00, 0x00,
  0x00, 0x00, 0x00, 0x00, 0x00, 0x00, 0x00, 0x00, 0x00, 0x00, 0x00, 0x00,
  0x00, 0x00, 0x00, 0x00, 0x00, 0x00, 0x00, 0x00, 0x00, 0x00, 0x00, 0x00,
  0x00, 0x00, 0x00, 0x00, 0x00, 0x00, 0x00, 0x00, 0x00, 0x00, 0x00, 0x00,
  0x00, 0x00, 0x00, 0x00, 0x00, 0x00, 0x00, 0x00, 0x00, 0x00, 0x00, 0x00,
  0x00, 0x00, 0x00, 0x00, 0x00, 0x00, 0x00, 0x00, 0x00, 0x00, 0x00, 0x00,
  0x00, 0x00, 0x00, 0x00, 0x00, 0x00, 0x00, 0x00, 0x00, 0x00, 0x00, 0x00,
  0x00, 0x00, 0x00, 0x00, 0x00, 0x00, 0x00, 0x00, 0x00, 0x00, 0x00, 0x00,
  0x00, 0x00, 0x00, 0x00, 0x00, 0x00, 0x00, 0x00, 0x00, 0x00, 0x00, 0x00,
  0x00, 0x00, 0x00, 0x00, 0x00, 0x00, 0x00, 0x00, 0x00, 0x00, 0x00, 0x00,
  0x00, 0x00, 0x00, 0x00, 0x00, 0x00, 0x00, 0x00, 0x00, 0x00, 0x00, 0x00,
  0x00, 0x00, 0x00, 0x00, 0x00, 0x00, 0x00, 0x00, 0x00, 0x00, 0x00, 0x00,
  0x00, 0x00, 0x00, 0x00, 0x00, 0x00, 0x00, 0x00, 0x00, 0x00, 0x00, 0x00,
  0x00, 0x00, 0x00, 0x00, 0x00, 0x00, 0x00, 0x00, 0x00, 0x00, 0x00, 0x00,
  0x00, 0x00, 0x00, 0x00, 0x00, 0x00, 0x00, 0x00, 0x00, 0x00, 0x00, 0x00,
  0x00, 0x00, 0x00, 0x00, 0x00, 0x00, 0x00, 0x00, 0x00, 0x00, 0x00, 0x00,
  0x00, 0x00, 0x00, 0x00, 0x00, 0x00, 0x00, 0x00, 0x00, 0x00, 0x00, 0x00,
  0x00, 0x00, 0x00, 0x00, 0x00, 0x00, 0x00, 0x00, 0x00, 0x00, 0x00, 0x00,
  0x00, 0x00, 0x00, 0x00, 0x00, 0x00, 0x00, 0x00, 0x00, 0x00, 0x00, 0x00,
  0x00, 0x00, 0x00, 0x00, 0x00, 0x00, 0x00, 0x00, 0x00, 0x00, 0x00, 0x00,
  0x00, 0x00, 0x00, 0x00, 0x00, 0x00, 0x00, 0x00, 0x00, 0x00, 0x00, 0x00,
  0x00, 0x00, 0x00, 0x00, 0x00, 0x00, 0x00, 0x00, 0x00, 0x00, 0x00, 0x00,
  0x00, 0x00, 0x00, 0x00, 0x00, 0x00, 0x00, 0x00, 0x00, 0x00, 0x00, 0x00,
  0x00, 0x00, 0x00, 0x00, 0x00, 0x00, 0x00, 0x00, 0x00, 0x00, 0x00, 0x00,
  0x00, 0x00, 0x00, 0x00, 0x00, 0x00, 0x00, 0x00, 0x00, 0x00, 0x00, 0x00,
  0x30, 0x00, 0x00, 0x00, 0x79, 0xd0, 0xe6, 0x39, 0x62, 0xc4, 0xb6, 0x39,
  0xa9, 0xe3, 0x1a, 0x3a, 0x9f, 0x83, 0xa9, 0x39, 0x4d, 0xcb, 0xed, 0x39,
  0xad, 0xe9, 0xd4, 0x39, 0x14, 0x8b, 0xcd, 0x39, 0x74, 0x2e, 0xb2, 0x39,
  0x05, 0x1f, 0xdc, 0x39, 0x8a, 0xee, 0x24, 0x3a, 0x11, 0x38, 0x21, 0x3a,
  0x03, 0xf6, 0xcf, 0x39, 0xb8, 0xae, 0xdc, 0x39, 0xa7, 0x54, 0xd9, 0x39,
  0xe0, 0xa4, 0xdc, 0x39, 0xb5, 0xb4, 0xaa, 0x39, 0xf7, 0x84, 0xfa, 0x39,
  0xc7, 0xfc, 0x0f, 0x3a, 0x90, 0xab, 0x17, 0x3a, 0xad, 0x4a, 0x54, 0x3a,
  0xc5, 0x77, 0xd3, 0x39, 0x41, 0x8d, 0x4c, 0x3a, 0xe2, 0x66, 0x13, 0x3a,
  0xe9, 0xa6, 0xb1, 0x39, 0xcd, 0x56, 0x01, 0x3a, 0xf6, 0x8e, 0xa0, 0x39,
  0xea, 0xe2, 0xd1, 0x39, 0x13, 0x62, 0xde, 0x39, 0x6d, 0x5a, 0x14, 0x3a,
  0xcc, 0xae, 0xb4, 0x39, 0x73, 0xd1, 0xd1, 0x39, 0x11, 0x46, 0xc0, 0x39,
  0x08, 0xea, 0xef, 0x39, 0x49, 0x32, 0xe8, 0x39, 0xde, 0x38, 0x00, 0x3a,
  0x44, 0x08, 0xba, 0x39, 0xd3, 0xaa, 0xc6, 0x39, 0x14, 0x8e, 0x95, 0x39,
  0x68, 0xba, 0x9e, 0x39, 0xf7, 0xc0, 0x12, 0x3a, 0x7a, 0x72, 0xf0, 0x39,
  0x71, 0x49, 0x14, 0x3a, 0x62, 0xd5, 0xd0, 0x39, 0x3f, 0x2d, 0xaa, 0x39,
  0x69, 0x6b, 0x45, 0x3a, 0x0f, 0x28, 0x06, 0x3a, 0x2f, 0xc8, 0x43, 0x3a,
  0x86, 0x19, 0x00, 0x3a, 0x12, 0x00, 0x00, 0x00, 0x74, 0x66, 0x6c, 0x2e,
  0x70, 0x73, 0x65, 0x75, 0x64, 0x6f, 0x5f, 0x71, 0x63, 0x6f, 0x6e, 0x73,
  0x74, 0x34, 0x00, 0x00, 0x01, 0x00, 0x00, 0x00, 0x30, 0x00, 0x00, 0x00,
  0x3a, 0xfb, 0xff, 0xff, 0x00, 0x00, 0x00, 0x01, 0x14, 0x00, 0x00, 0x00,
  0xa8, 0x01, 0x00, 0x00, 0x06, 0x00, 0x00, 0x00, 0x00, 0x00, 0x00, 0x09,
  0xb4, 0x01, 0x00, 0x00, 0xb4, 0xfa, 0xff, 0xff, 0x08, 0x00, 0x00, 0x00,
  0x0c, 0x01, 0x00, 0x00, 0x20, 0x00, 0x00, 0x00, 0x00, 0x00, 0x00, 0x00,
  0x00, 0x00, 0x00, 0x00, 0x00, 0x00, 0x00, 0x00, 0x00, 0x00, 0x00, 0x00,
  0x00, 0x00, 0x00, 0x00, 0x00, 0x00, 0x00, 0x00, 0x00, 0x00, 0x00, 0x00,
  0x00, 0x00, 0x00, 0x00, 0x00, 0x00, 0x00, 0x00, 0x00, 0x00, 0x00, 0x00,
  0x00, 0x00, 0x00, 0x00, 0x00, 0x00, 0x00, 0x00, 0x00, 0x00, 0x00, 0x00,
  0x00, 0x00, 0x00, 0x00, 0x00, 0x00, 0x00, 0x00, 0x00, 0x00, 0x00, 0x00,
  0x00, 0x00, 0x00, 0x00, 0x00, 0x00, 0x00, 0x00, 0x00, 0x00, 0x00, 0x00,
  0x00, 0x00, 0x00, 0x00, 0x00, 0x00, 0x00, 0x00, 0x00, 0x00, 0x00, 0x00,
  0x00, 0x00, 0x00, 0x00, 0x00, 0x00, 0x00, 0x00, 0x00, 0x00, 0x00, 0x00,
  0x00, 0x00, 0x00, 0x00, 0x00, 0x00, 0x00, 0x00, 0x00, 0x00, 0x00, 0x00,
  0x00, 0x00, 0x00, 0x00, 0x00, 0x00, 0x00, 0x00, 0x00, 0x00, 0x00, 0x00,
  0x00, 0x00, 0x00, 0x00, 0x00, 0x00, 0x00, 0x00, 0x00, 0x00, 0x00, 0x00,
  0x00, 0x00, 0x00, 0x00, 0x00, 0x00, 0x00, 0x00, 0x00, 0x00, 0x00, 0x00,
  0x00, 0x00, 0x00, 0x00, 0x00, 0x00, 0x00, 0x00, 0x00, 0x00, 0x00, 0x00,
  0x00, 0x00, 0x00, 0x00, 0x00, 0x00, 0x00, 0x00, 0x00, 0x00, 0x00, 0x00,
  0x00, 0x00, 0x00, 0x00, 0x00, 0x00, 0x00, 0x00, 0x00, 0x00, 0x00, 0x00,
  0x00, 0x00, 0x00, 0x00, 0x00, 0x00, 0x00, 0x00, 0x00, 0x00, 0x00, 0x00,
  0x00, 0x00, 0x00, 0x00, 0x00, 0x00, 0x00, 0x00, 0x00, 0x00, 0x00, 0x00,
  0x00, 0x00, 0x00, 0x00, 0x00, 0x00, 0x00, 0x00, 0x00, 0x00, 0x00, 0x00,
  0x00, 0x00, 0x00, 0x00, 0x00, 0x00, 0x00, 0x00, 0x00, 0x00, 0x00, 0x00,
  0x00, 0x00, 0x00, 0x00, 0x00, 0x00, 0x00, 0x00, 0x00, 0x00, 0x00, 0x00,
  0x00, 0x00, 0x00, 0x00, 0x00, 0x00, 0x00, 0x00, 0x00, 0x00, 0x00, 0x00,
  0x00, 0x00, 0x00, 0x00, 0x20, 0x00, 0x00, 0x00, 0x34, 0x3c, 0x86, 0x3b,
  0x3a, 0xc4, 0x7e, 0x3b, 0xf6, 0xf2, 0xc5, 0x3b, 0x8b, 0xa2, 0x67, 0x3b,
  0x9d, 0xe3, 0xea, 0x3b, 0xf0, 0x38, 0xb8, 0x3b, 0x36, 0x4c, 0x86, 0x3b,
  0x0d, 0xa7, 0x88, 0x3b, 0xd3, 0xc4, 0x61, 0x3b, 0xb2, 0x73, 0x84, 0x3b,
  0x2a, 0x86, 0xab, 0x3b, 0x58, 0x16, 0x01, 0x3b, 0xed, 0x02, 0xff, 0x3a,
  0x7a, 0x6c, 0x10, 0x3b, 0x5a, 0xbf, 0x8f, 0x3b, 0x53, 0xa4, 0xfc, 0x3a,
  0x87, 0x4d, 0x85, 0x3b, 0x7b, 0x4d, 0x9f, 0x3b, 0xe6, 0xb7, 0x6a, 0x3b,
  0x4c, 0x10, 0xa7, 0x3b, 0x29, 0x45, 0x83, 0x3b, 0xdd, 0x42, 0xad, 0x3b,
  0x7f, 0xc3, 0xbc, 0x3b, 0xf2, 0x35, 0xad, 0x3b, 0xce, 0x26, 0x94, 0x3b,
  0xc1, 0xa2, 0x89, 0x3b, 0xfd, 0xbb, 0xfe, 0x3a, 0x1c, 0x45, 0x8f, 0x3b,
  0xc7, 0xfd, 0x73, 0x3b, 0x44, 0x31, 0x70, 0x3b, 0x66, 0xb1, 0xb5, 0x3b,
  0x55, 0x7b, 0x9c, 0x3b, 0x12, 0x00, 0x00, 0x00, 0x74, 0x66, 0x6c, 0x2e,
  0x70, 0x73, 0x65, 0x75, 0x64, 0x6f, 0x5f, 0x71, 0x63, 0x6f, 0x6e, 0x73,
  0x74, 0x33, 0x00, 0x00, 0x02, 0x00, 0x00, 0x00, 0x20, 0x00, 0x00, 0x00,
  0x30, 0x00, 0x00, 0x00, 0x12, 0xfd, 0xff, 0xff, 0x00, 0x00, 0x00, 0x01,
  0x14, 0x00, 0x00, 0x00, 0xa4, 0x01, 0x00, 0x00, 0x05, 0x00, 0x00, 0x00,
  0x00, 0x00, 0x00, 0x02, 0xb0, 0x01, 0x00, 0x00, 0x8c, 0xfc, 0xff, 0xff,
  0x08, 0x00, 0x00, 0x00, 0x08, 0x01, 0x00, 0x00, 0x20, 0x00, 0x00, 0x00,
  0x00, 0x00, 0x00, 0x00, 0x00, 0x00, 0x00, 0x00, 0x00, 0x00, 0x00, 0x00,
  0x00, 0x00, 0x00, 0x00, 0x00, 0x00, 0x00, 0x00, 0x00, 0x00, 0x00, 0x00,
  0x00, 0x00, 0x00, 0x00, 0x00, 0x00, 0x00, 0x00, 0x00, 0x00, 0x00, 0x00,
  0x00, 0x00, 0x00, 0x00, 0x00, 0x00, 0x00, 0x00, 0x00, 0x00, 0x00, 0x00,
  0x00, 0x00, 0x00, 0x00, 0x00, 0x00, 0x00, 0x00, 0x00, 0x00, 0x00, 0x00,
  0x00, 0x00, 0x00, 0x00, 0x00, 0x00, 0x00, 0x00, 0x00, 0x00, 0x00, 0x00,
  0x00, 0x00, 0x00, 0x00, 0x00, 0x00, 0x00, 0x00, 0x00, 0x00, 0x00, 0x00,
  0x00, 0x00, 0x00, 0x00, 0x00, 0x00, 0x00, 0x00, 0x00, 0x00, 0x00, 0x00,
  0x00, 0x00, 0x00, 0x00, 0x00, 0x00, 0x00, 0x00, 0x00, 0x00, 0x00, 0x00,
  0x00, 0x00, 0x00, 0x00, 0x00, 0x00, 0x00, 0x00, 0x00, 0x00, 0x00, 0x00,
  0x00, 0x00, 0x00, 0x00, 0x00, 0x00, 0x00, 0x00, 0x00, 0x00, 0x00, 0x00,
  0x00, 0x00, 0x00, 0x00, 0x00, 0x00, 0x00, 0x00, 0x00, 0x00, 0x00, 0x00,
  0x00, 0x00, 0x00, 0x00, 0x00, 0x00, 0x00, 0x00, 0x00, 0x00, 0x00, 0x00,
  0x00, 0x00, 0x00, 0x00, 0x00, 0x00, 0x00, 0x00, 0x00, 0x00, 0x00, 0x00,
  0x00, 0x00, 0x00, 0x00, 0x00, 0x00, 0x00, 0x00, 0x00, 0x00, 0x00, 0x00,
  0x00, 0x00, 0x00, 0x00, 0x00, 0x00, 0x00, 0x00, 0x00, 0x00, 0x00, 0x00,
  0x00, 0x00, 0x00, 0x00, 0x00, 0x00, 0x00, 0x00, 0x00, 0x00, 0x00, 0x00,
  0x00, 0x00, 0x00, 0x00, 0x00, 0x00, 0x00, 0x00, 0x00, 0x00, 0x00, 0x00,
  0x00, 0x00, 0x00, 0x00, 0x00, 0x00, 0x00, 0x00, 0x00, 0x00, 0x00, 0x00,
  0x00, 0x00, 0x00, 0x00, 0x00, 0x00, 0x00, 0x00, 0x00, 0x00, 0x00, 0x00,
  0x00, 0x00, 0x00, 0x00, 0x00, 0x00, 0x00, 0x00, 0x00, 0x00, 0x00, 0x00,
  0x00, 0x00, 0x00, 0x00, 0x20, 0x00, 0x00, 0x00, 0x66, 0xe8, 0xa4, 0x38,
  0x80, 0x7d, 0x9c, 0x38, 0x27, 0x2e, 0xf3, 0x38, 0x1c, 0x48, 0x8e, 0x38,
  0xd2, 0x47, 0x10, 0x39, 0x2e, 0x51, 0xe2, 0x38, 0x11, 0xfc, 0xa4, 0x38,
  0xa7, 0xe0, 0xa7, 0x38, 0xae, 0xad, 0x8a, 0x38, 0x94, 0xb7, 0xa2, 0x38,
  0x9b, 0xb7, 0xd2, 0x38, 0x69, 0x95, 0x1e, 0x38, 0x04, 0xa4, 0x1c, 0x38,
  0xa9, 0x6c, 0x31, 0x38, 0xfa, 0x97, 0xb0, 0x38, 0x69, 0x2f, 0x1b, 0x38,
  0x30, 0xc3, 0xa3, 0x38, 0x05, 0xb4, 0xc3, 0x38, 0xf8, 0x2c, 0x90, 0x38,
  0xd3, 0x3c, 0xcd, 0x38, 0xea, 0x43, 0xa1, 0x38, 0xeb, 0xd9, 0xd4, 0x38,
  0x61, 0xe5, 0xe7, 0x38, 0x0c, 0xca, 0xd4, 0x38, 0x0e, 0x01, 0xb6, 0x38,
  0xdf, 0x15, 0xa9, 0x38, 0x71, 0x78, 0x1c, 0x38, 0xce, 0x01, 0xb0, 0x38,
  0x20, 0xdf, 0x95, 0x38, 0xc2, 0x89, 0x93, 0x38, 0xad, 0x35, 0xdf, 0x38,
  0xdc, 0x3c, 0xc0, 0x38, 0x12, 0x00, 0x00, 0x00, 0x74, 0x66, 0x6c, 0x2e,
  0x70, 0x73, 0x65, 0x75, 0x64, 0x6f, 0x5f, 0x71, 0x63, 0x6f, 0x6e, 0x73,
  0x74, 0x32, 0x00, 0x00, 0x01, 0x00, 0x00, 0x00, 0x20, 0x00, 0x00, 0x00,
  0xe2, 0xfe, 0xff, 0xff, 0x00, 0x00, 0x00, 0x01, 0x14, 0x00, 0x00, 0x00,
  0x60, 0x00, 0x00, 0x00, 0x04, 0x00, 0x00, 0x00, 0x00, 0x00, 0x00, 0x09,
  0x6c, 0x00, 0x00, 0x00, 0x5c, 0xfe, 0xff, 0xff, 0x08, 0x00, 0x00, 0x00,
  0x30, 0x00, 0x00, 0x00, 0x05, 0x00, 0x00, 0x00, 0x00, 0x00, 0x00, 0x00,
  0x00, 0x00, 0x00, 0x00, 0x00, 0x00, 0x00, 0x00, 0x00, 0x00, 0x00, 0x00,
  0x00, 0x00, 0x00, 0x00, 0x00, 0x00, 0x00, 0x00, 0x00, 0x00, 0x00, 0x00,
  0x00, 0x00, 0x00, 0x00, 0x00, 0x00, 0x00, 0x00, 0x00, 0x00, 0x00, 0x00,
  0x05, 0x00, 0x00, 0x00, 0x3a, 0x84, 0x11, 0x3c, 0x53, 0x9a, 0x2a, 0x3c,
  0x3a, 0x96, 0x43, 0x3c, 0xe8, 0xaf, 0x82, 0x3c, 0xdf, 0xdd, 0x23, 0x3c,
  0x12, 0x00, 0x00, 0x00, 0x74, 0x66, 0x6c, 0x2e, 0x70, 0x73, 0x65, 0x75,
  0x64, 0x6f, 0x5f, 0x71, 0x63, 0x6f, 0x6e, 0x73, 0x74, 0x31, 0x00, 0x00,
  0x02, 0x00, 0x00, 0x00, 0x05, 0x00, 0x00, 0x00, 0x20, 0x00, 0x00, 0x00,
  0x72, 0xff, 0xff, 0xff, 0x00, 0x00, 0x00, 0x01, 0x14, 0x00, 0x00, 0x00,
  0x60, 0x00, 0x00, 0x00, 0x03, 0x00, 0x00, 0x00, 0x00, 0x00, 0x00, 0x02,
  0x6c, 0x00, 0x00, 0x00, 0xec, 0xfe, 0xff, 0xff, 0x08, 0x00, 0x00, 0x00,
  0x30, 0x00, 0x00, 0x00, 0x05, 0x00, 0x00, 0x00, 0x00, 0x00, 0x00, 0x00,
  0x00, 0x00, 0x00, 0x00, 0x00, 0x00, 0x00, 0x00, 0x00, 0x00, 0x00, 0x00,
  0x00, 0x00, 0x00, 0x00, 0x00, 0x00, 0x00, 0x00, 0x00, 0x00, 0x00, 0x00,
  0x00, 0x00, 0x00, 0x00, 0x00, 0x00, 0x00, 0x00, 0x00, 0x00, 0x00, 0x00,
  0x05, 0x00, 0x00, 0x00, 0x84, 0x28, 0x2d, 0x39, 0x88, 0x02, 0x4b, 0x39,
  0x60, 0xbd, 0x68, 0x39, 0x10, 0x83, 0x9b, 0x39, 0x82, 0xfe, 0x42, 0x39,
  0x11, 0x00, 0x00, 0x00, 0x74, 0x66, 0x6c, 0x2e, 0x70, 0x73, 0x65, 0x75,
  0x64, 0x6f, 0x5f, 0x71, 0x63, 0x6f, 0x6e, 0x73, 0x74, 0x00, 0x00, 0x00,
  0x01, 0x00, 0x00, 0x00, 0x05, 0x00, 0x00, 0x00, 0x00, 0x00, 0x16, 0x00,
  0x1c, 0x00, 0x18, 0x00, 0x17, 0x00, 0x10, 0x00, 0x0c, 0x00, 0x08, 0x00,
  0x00, 0x00, 0x00, 0x00, 0x00, 0x00, 0x07, 0x00, 0x16, 0x00, 0x00, 0x00,
  0x00, 0x00, 0x00, 0x01, 0x18, 0x00, 0x00, 0x00, 0x18, 0x00, 0x00, 0x00,
  0x02, 0x00, 0x00, 0x00, 0x00, 0x00, 0x00, 0x02, 0x20, 0x00, 0x00, 0x00,
  0x04, 0x00, 0x04, 0x00, 0x04, 0x00, 0x00, 0x00, 0x0e, 0x00, 0x00, 0x00,
  0x61, 0x72, 0x69, 0x74, 0x68, 0x2e, 0x63, 0x6f, 0x6e, 0x73, 0x74, 0x61,
  0x6e, 0x74, 0x00, 0x00, 0x01, 0x00, 0x00, 0x00, 0x02, 0x00, 0x00, 0x00,
  0x00, 0x00, 0x16, 0x00, 0x20, 0x00, 0x1c, 0x00, 0x1b, 0x00, 0x14, 0x00,
  0x10, 0x00, 0x0c, 0x00, 0x00, 0x00, 0x00, 0x00, 0x08, 0x00, 0x07, 0x00,
  0x16, 0x00, 0x00, 0x00, 0x00, 0x00, 0x00, 0x01, 0x18, 0x00, 0x00, 0x00,
  0x34, 0x00, 0x00, 0x00, 0x54, 0x00, 0x00, 0x00, 0x01, 0x00, 0x00, 0x00,
  0x00, 0x00, 0x00, 0x09, 0x68, 0x00, 0x00, 0x00, 0x04, 0x00, 0x00, 0x00,
  0xff, 0xff, 0xff, 0xff, 0x42, 0x00, 0x00, 0x00, 0x28, 0x00, 0x00, 0x00,
  0x01, 0x00, 0x00, 0x00, 0x0c, 0x00, 0x0c, 0x00, 0x00, 0x00, 0x00, 0x00,
  0x08, 0x00, 0x04, 0x00, 0x0c, 0x00, 0x00, 0x00, 0x08, 0x00, 0x00, 0x00,
  0x14, 0x00, 0x00, 0x00, 0x01, 0x00, 0x00, 0x00, 0x27, 0x00, 0x00, 0x00,
  0x00, 0x00, 0x00, 0x00, 0x00, 0x00, 0x00, 0x00, 0x01, 0x00, 0x00, 0x00,
  0xec, 0x20, 0xa9, 0x3d, 0x1b, 0x00, 0x00, 0x00, 0x73, 0x65, 0x72, 0x76,
  0x69, 0x6e, 0x67, 0x5f, 0x64, 0x65, 0x66, 0x61, 0x75, 0x6c, 0x74, 0x5f,
  0x6d, 0x65, 0x6c, 0x5f, 0x69, 0x6e, 0x70, 0x75, 0x74, 0x3a, 0x30, 0x00,
  0x04, 0x00, 0x00, 0x00, 0x01, 0x00, 0x00, 0x00, 0x42, 0x00, 0x00, 0x00,
  0x28, 0x00, 0x00, 0x00, 0x01, 0x00, 0x00, 0x00, 0x06, 0x00, 0x00, 0x00,
  0x74, 0x00, 0x00, 0x00, 0x54, 0x00, 0x00, 0x00, 0x40, 0x00, 0x00, 0x00,
  0x2c, 0x00, 0x00, 0x00, 0x18, 0x00, 0x00, 0x00, 0x04, 0x00, 0x00, 0x00,
  0xb0, 0xff, 0xff, 0xff, 0x19, 0x00, 0x00, 0x00, 0x02, 0x00, 0x00, 0x00,
  0x00, 0x00, 0x00, 0x19, 0xc0, 0xff, 0xff, 0xff, 0x09, 0x00, 0x00, 0x00,
  0x04, 0x00, 0x00, 0x00, 0x00, 0x00, 0x00, 0x09, 0xd0, 0xff, 0xff, 0xff,
  0x28, 0x00, 0x00, 0x00, 0x02, 0x00, 0x00, 0x00, 0x00, 0x00, 0x00, 0x28,
  0xe0, 0xff, 0xff, 0xff, 0x11, 0x00, 0x00, 0x00, 0x02, 0x00, 0x00, 0x00,
  0x00, 0x00, 0x00, 0x11, 0xf0, 0xff, 0xff, 0xff, 0x03, 0x00, 0x00, 0x00,
  0x03, 0x00, 0x00, 0x00, 0x00, 0x00, 0x00, 0x03, 0x0c, 0x00, 0x10, 0x00,
  0x0f, 0x00, 0x00, 0x00, 0x08, 0x00, 0x04, 0x00, 0x0c, 0x00, 0x00, 0x00,
  0x04, 0x00, 0x00, 0x00, 0x03, 0x00, 0x00, 0x00, 0x00, 0x00, 0x00, 0x04
};

const int g_model_len = sizeof(g_model);
